Ġ Ġ
ĠĠ ĠĠ
i n
Ġ t
ĠĠĠĠ ĠĠĠĠ
e r
ĠĠ Ġ
o n
Ġ a
r e
a t
s t
e n
o r
Ġt h
Ċ Ċ
Ġ c
l e
Ġ s
i t
a n
a r
a l
Ġth e
; Ċ
Ġ p
Ġ f
o u
Ġ =
i s
ĠĠĠĠ ĠĠĠ
in g
e s
Ġ w
i on
e d
i c
Ġ b
Ġ d
e t
Ġ m
Ġ o
ĉ ĉ
r o
a s
e l
c t
n d
Ġ in
Ġ h
en t
i d
Ġ n
a m
ĠĠĠĠĠĠĠĠ ĠĠĠ
Ġt o
Ġ re
- -
Ġ {
Ġo f
o m
) ;Ċ
i m
č Ċ
Ġ (
i l
/ /
Ġa nd
u r
s e
Ġ l
e x
Ġ S
a d
Ġ "
c h
u t
i f
* *
Ġ }
e m
o l
ĠĠĠĠĠĠĠĠ ĠĠĠĠĠĠĠĠ
t h
) Ċ
Ġ{ Ċ
Ġ g
i g
i v
, Ċ
c e
o d
Ġ v
at e
Ġ T
a g
a y
Ġ *
o t
u s
Ġ C
Ġ st
Ġ I
u n
u l
u e
Ġ A
o w
Ġ '
e w
Ġ <
at ion
( )
Ġf or
a b
or t
u m
am e
Ġ is
p e
t r
c k
â Ģ
Ġ y
i st
-- --
. ĊĊ
h e
Ġ e
l o
Ġ M
Ġb e
er s
Ġ on
Ġc on
a p
u b
Ġ P
ĠĠĠĠĠĠĠĠ ĠĠĠĠĠĠĠ
as s
in t
> Ċ
l y
ur n
Ġ $
; ĊĊ
a v
p ort
i r
- >
n t
ct ion
en d
Ġd e
0 0
it h
ou t
t urn
ou r
ĠĠĠĠ Ġ
l ic
re s
p t
= =
Ġth is
Ġw h
Ġ if
Ġ D
v er
ag e
Ġ B
h t
ex t
= "
Ġth at
** **
Ġ R
Ġ it
es s
Ġ F
Ġ r
o s
an d
Ġa s
e ct
k e
ro m
Ġ //
c on
Ġ L
( "
q u
l ass
Ġw ith
i z
d e
Ġ N
Ġa l
o p
u p
g et
Ġ} Ċ
i le
Ġa n
at a
o re
r i
Ġp ro
; čĊ
ĉĉ ĉĉ
t er
a in
Ġ W
Ġ E
Ġc om
Ġre turn
ar t
Ġ H
a ck
im port
ub lic
Ġ or
e st
m ent
Ġ G
ab le
Ġ -
in e
il l
in d
er e
: :
it y
Ġ +
Ġt r
el f
ig ht
( '
or m
ul t
st r
. .
" ,
Ġy ou
y pe
p l
Ġn ew
Ġ j
ĠĠĠĠĠĠĠĠ ĠĠĠĠĠĠĠĠĠĠĠ
Ġf rom
Ġ ex
Ġ O
2 0
l d
Ġ [
o c
: Ċ
Ġs e
Ġ le
---- ----
. s
{ Ċ
' ,
an t
Ġa t
as e
. c
Ġc h
< /
av e
an g
Ġa re
Ġin t
âĢ Ļ
_ t
er t
i al
a ct
} Ċ
iv e
od e
o st
Ġc lass
Ġn ot
o g
or d
al ue
al l
f f
( );Ċ
on t
im e
a re
Ġ U
Ġp r
Ġ :
i es
iz e
u re
Ġb y
i re
Ġ} ĊĊ
. p
Ġs h
ic e
a st
pt ion
tr ing
o k
_ _
c l
# #
Ġh e
ar d
) .
Ġ @
i ew
ĉĉ ĉ
Ġw as
i p
th is
Ġ u
ĠT he
id e
a ce
i b
a c
r ou
Ġw e
j ect
Ġp ublic
a k
v e
at h
o id
Ġ= >
u st
q ue
Ġre s
) )
' s
Ġ k
an s
y st
un ction
**** ****
Ġ i
Ġ us
p p
1 0
on e
a il
== ==
n ame
Ġst r
Ġ /
Ġ &
a ch
d iv
yst em
el l
Ġh ave
er r
ou ld
ul l
p on
Ġ J
_ p
Ġ= =
ig n
S t
. Ċ
Ġp l
) ;ĊĊ
f orm
p ut
ou nt
} ĊĊ
d d
it e
Ġg et
r r
om e
Ġ âĢ
ar am
c c
Ġ* /
E R
I n
le s
_ s
on g
i e
Ġc an
Ġ V
er v
p r
Ġ un
ro w
b er
Ġd o
l l
Ġ el
Ġs elf
at ed
ar y
Ġ .
' ]
u d
Ġ en
ĠT h
ĠĠĠĠĠĠĠĠĠĠĠĠĠĠĠĠ ĠĠĠĠĠĠĠ
t e
_ c
u ct
Ġa b
or k
. get
Ġ #
a w
res s
o b
N ame
20 1
ap p
[ '
Ġal l
or y
it ion
an ce
e ar
Ġcon t
v ent
i a
Ġw ill
I N
ĠĠĠĠĠĠĠĠ Ġ
re turn
Ġ< /
d ata
) ĊĊ
R e
p le
il d
th er
Ġy our
" Ċ
( $
Ġ out
) ,
Ġh as
S tring
s o
Ġ up
a x
Ġde f
Ġb o
g e
al se
O N
p er
1 2
ic h
Ġb ut
Ġ Ċ
Ġ _
_ m
ad d
que st
od el
s elf
er y
f t
en s
// //
a ke
. C
Ġg o
Ġf unction
Ġ K
iv ate
Ġ im
Ġcon st
. t
Ġ*/ Ċ
) ;čĊ
Ġv oid
Ġs et
ĠS ystem
c ri
( )Ċ
l i
ĉ if
. m
al ly
s et
e p
âĢĻ s
b o
de f
' ,Ċ
Ġm e
Ġ !
at ch
" >
" ,Ċ
e c
ĠI n
p h
Ġ |
_ f
Ġv ar
en ce
I d
re e
in k
le ct
u g
et h
Ġel se
-------- --------
1 9
con t
Ġs o
at ic
Ġl o
p ro
t on
s s
ow n
ab el
o int
ou s
el d
S T
T he
ĠĠĠĠĠĠĠĠĠĠĠĠĠĠĠĠ ĠĠĠĠĠĠĠĠĠĠĠĠĠĠĠĠ
R E
" :
ol or
t p
e g
ke y
u de
ĠS t
ou nd
Ġa r
" );Ċ
en er
s er
1 1
b ject
ess age
f er
Ġm ore
ation s
ent s
Ġh is
Ġthe y
. S
Ġ Y
u se
n e
is h
ol d
_ d
i o
i eld
Ġp er
C ont
ing s
## ##
Ġd ata
Ġs a
e f
f o
Ġon e
en g
Ġd is
A T
Ġn ame
Ġtr ue
v al
le d
. f
Ġn e
Ġ end
3 2
. T
1 6
c re
ar k
lo g
E x
err or
_ id
ur re
ang e
Ġn ull
rr ay
Ġm y
p an
ic t
at or
V iew
L ist
ĉ return
âĢ Ŀ
Ġp re
Ġ x
cl ude
ar g
1 5
o v
. h
Ġ >
Ġthe ir
' )
ir st
ic k
g h
L E
O R
Ġpr ivate
t em
čĊ čĊ
us er
Ġ )
c om
. A
" ;Ċ
Ġ id
re ad
Ġwh o
_ b
" >Ċ
Ġt ime
Ġm an
r y
==== ====
rou p
ro p
p ublic
v el
um ber
b le
Ġwh ich
******** ********
Ġan y
Ġf alse
w e
Ġv alue
Ġl i
" )
nd er
g r
Ġn o
p aram
2 5
f ig
.c om
Ġa pp
_ l
ion s
. D
ĠC h
Ġab out
Ġa dd
Ġs u
Ġstr ing
I D
Ġo ver
str ing
. l
our ce
00 0
_ C
] Ċ
Ġ qu
ĠS tring
c a
S E
Ġ ro
s h
u al
T ype
s on
n ew
er n
Ġa g
A R
] ;Ċ
] .
Ġ ?
ic al
Ġd es
ut h
i x
ay s
Ġt ype
' t
a ult
Ġin ter
v ar
. b
Ġp art
. d
urre nt
I T
E N
3 0
en c
( f
r a
v alue
ch o
1 8
ut ton
o se
1 4
Ġ! =
at er
Ã ©
re ate
ol l
p os
y le
n g
A L
us ing
am es
Ġ{ čĊ
at es
el y
Ġw ork
Ġ em
in al
Ġs p
Ġwh en
.s et
ĠĠĠĠ ĠĠ
) :Ċ
t o
qu ire
ind ow
le ment
pe ct
as h
[ i
Ġu se
. F
pe c
Ġa d
o ve
ce ption
eng th
in clude
ad er
ĠĠĠĠĠĠĠĠĠĠĠĠĠĠĠĠ ĠĠĠĠĠĠĠĠĠĠĠ
at us
T h
it le
r it
v oid
() .
( Ċ
Ġof f
Ġo ther
Ġ& &
' ;Ċ
m s
Ġbe en
Ġt e
m l
c o
n c
1 3
erv ice
Ġ %
** Ċ
an n
ad e
ĊĊ ĊĊ
lo ck
con st
1 00
pon se
Ġs up
+ +
d ate
Ġa cc
Ġh ad
Ġb u
2 00
ĠR e
Ġw ere
Ġf ile
Ġw ould
ĠâĢ ľ
v en
is s
Ġ our
c lass
r aw
Ġy ear
D ata
Ġv al
Ġs ome
f ter
y s
Ġ// /
rou nd
v iew
Ġp e
Ġth ere
Ġsa id
d u
o f
l ine
/ *
d uct
Ġh er
ĠĠĠĠĠĠĠĠ ĠĠĠĠĠ
R es
Ġc o
Ġcom m
is e
m in
ĠĠĠĠ Ċ
# include
eth od
. P
ut e
Ġas s
I nt
as k
lo c
Ġli ke
od y
Ġle t
lo ad
Ġa m
ro l
Ġg r
y p
Ġal so
ĠI t
ur l
if ic
or s
_ P
_ n
ig h
Ġth an
C om
A N
U L
at ing
1 7
ĠTh is
re f
_ S
Ġst atic
ro ll
Ġj ust
Ġres ult
i an
id th
Ġthe m
) );Ċ
d er
re ak
C on
: //
u le
.. .
ar ch
em ent
Ġ< <
5 0
us h
en se
ar r
Ġint o
c ess
am p
i ed
um ent
Ġ \
] ,
w o
al s
Ġwh at
an c
V alue
= '
ol um
Ġp os
ag es
ay er
Ġs c
u es
" )Ċ
_ T
Ġl ist
( s
Ġc ase
C h
ĉĉĉĉ ĉ
//// ////
pon ent
Ġ z
Ġk n
le t
D E
re d
Ġf e
Ġ} ,Ċ
Ġ ,
( t
Ġf irst
' );Ċ
w ord
Ġ import
Ġa ct
Ġch ar
C T
ĠT r
op le
= {
ĉ f
2 4
i ent
c ent
. j
le ction
) )Ċ
Ġon ly
Ġpr int
m er
. W
o ck
Ġ --
T ext
Ġo p
an k
Ġit s
Ġb ack
[ "
Ġne ed
Ġc l
Ġs ub
Ġl a
( (
. "
O bject
Ġst art
f ile
( self
n er
e y
Ġus er
Ġ ent
ĠC om
it s
ĠC on
ou ble
ow er
it em
ver y
ĠW e
6 4
lic k
Ġ Q
ph p
t tp
' :
ic s
Ġu nder
Ġ* Ċ
. L
) ;
ic es
Ġre g
) čĊ
ĉ public
S S
Ġth en
re at
i ous
. G
e k
ire ct
he ck
cri pt
n ing
ĠU n
Ġm ay
ĠW h
B o
I tem
str uct
. st
re am
ib le
lo at
Ġor g
u nd
s um
_ in
.. /
_ M
Ġh ow
r ite
' Ċ
T o
4 0
w w
Ġpe ople
ind ex
. n
ht tp
( m
ect or
Ġin d
Ġj av
] ,Ċ
ĠH e
_ st
f ul
o le
) {Ċ
Ġsh ould
op y
el p
i er
_ name
ers on
I ON
ot e
Ġt est
Ġb et
rr or
ul ar
ã Ģ
Ġ Ð
b s
t ing
Ġm ake
T r
Ġa fter
ar get
R O
olum n
r c
_ re
def ine
2 2
Ġr ight
r ight
d ay
Ġl ong
[ ]
( p
t d
con d
ĠP ro
Ġre m
ption s
v id
. g
Ġ ext
Ġ __
' )Ċ
p ace
m p
Ġm in
st ance
a ir
a ction
w h
t ype
ut il
a it
< ?
I C
t ext
Ġp h
Ġf l
. M
cc ess
b r
f ore
ers ion
) ,Ċ
. re
ate g
Ġl oc
in s
- s
tr ib
ĠI nt
Ġa rray
, "
P ro
( c
ess ion
> ĊĊ
Ġs he
" ]
ap h
Ġex p
ert y
ĠS e
Ġp ar
un c
E T
Ġre ad
pr int
Ġre l
Ġfor m
Ġd r
Ex ception
in put
Ġtr ans
#### ####
ord er
B y
Ġa w
it ies
u ff
pl ay
. add
ĠâĢ ĵ
Ġw ant
Ġcom p
ment s
Ġ| |
a z
b e
Ġn umber
Ġre quire
ĠE x
6 0
Ġc ol
Ġ key
em ber
Ġt wo
Ġs ize
Ġwh ere
U T
res ult
ĠĠĠĠĠĠĠĠĠĠĠĠĠĠĠĠ ĠĠĠĠĠĠĠĠĠĠĠĠĠĠĠ
ou gh
or ld
o od
u ch
at ive
g er
are nt
Ġ/ *
Ġar g
Ġwh ile
2 3
( this
Ġre c
Ġd if
St ate
Ġs pec
r ide
_ F
Ġlo ok
A M
il ity
et er
âĢĻ t
ĊĊ Ċ
ay out
---------------- ----------------
ag er
Ġc ould
Ġb r
end s
u res
Ġkn ow
et s
ĠI f
ĠS h
. w
b ack
Ġs er
Ġ+ =
Ġf r
() );Ċ
Ġh and
I nd
UL L
I m
() ;ĊĊ
Ġm ost
Ġtr y
Ġn ow
rou gh
> čĊ
ack age
Ġh im
. _
if y
Ġb reak
Ġ );Ċ
re n
# define
it t
Ġa p
ĉ c
( n
ĠY ou
: ĊĊ
- m
Ġe very
ust om
li ent
oc ument
cri ption
E rror
- b
Ð ¾
] [
9 9
tr ans
Ġp oint
Ġst d
Ġf il
T ime
8 0
Ġm od
Ġ ->
Ġ error
a h
Ġt ext
roll er
lo se
q l
Ġp ol
> </
Ġsh ow
U ser
as ed
Ġ{ ĊĊ
Ġf ind
Ð °
E D
s pan
en u
Ġc urrent
Ġus ed
ce pt
cl ud
Ġpl ay
Ġl og
ut ion
f l
Ġse e
indow s
Ġh elp
Ġthe se
Ġp ass
Ġd own
Ġe ven
as on
u ild
f rom
( d
Ġb l
l abel
el se
Ð µ
Ġ( !
iz ed
() ,
Ġo b
Ġit em
um p
U R
or n
Ġd on
S e
m an
2 7
am ple
t n
======== ========
H e
gr am
Ġd id
w n
_ h
iv er
Ġs m
Ġth rough
ĠA n
ch e
Ġin v
ou se
Ġ es
ĠN ew
ex port
m ary
ut o
l er
Ġl ast
Ġe vent
tr y
ï ¼
il y
ign ed
in es
oll ow
ic ense
so le
le ar
( int
Ġag ain
Ġh igh
ht ml
Ind ex
uth or
Ġ/ **Ċ
Ġl ine
E vent
_ D
Ġdo es
it ial
Ġc r
ar s
2 8
Ġt em
ca use
f ace
Ġ `
_ A
B utton
at ure
ect ed
E S
ist er
ĉ Ċ
Ġbe fore
a le
o ther
Ġbe cause
ro id
Ġ ed
i k
re g
ĠD e
Ġd ist
} ,Ċ
Ġst ate
Ġcon s
r int
at t
Ġh ere
in ed
Ġf inal
Ġ" "
K ey
L O
Ġd el
pt y
th ing
2 6
ĠA nd
Ġr un
Ġ X
y m
. app
Ġv ery
c es
_ N
are d
w ard
l ist
it ed
ol og
it ch
Bo x
if e
3 3
Ġa c
Ġm odel
Ġm on
Ġw ay
le te
Ġc all
Ġat t
Ġc al
ver t
Ġde c
le ase
ou n
Ġ} );Ċ
f r
form ation
et ail
Ġn um
a j
qu ery
Ġw ell
Ġo bject
ĠA s
Ġyear s
C olor
I S
Ġdef ault
W h
Ġin s
a int
Ġjav a
Ġs im
ĠA r
m on
t il
() ;čĊ
) :
S et
2 9
at ter
Ġv iew
Ġp res
arr ay
W e
A t
Ġb el
Ġman y
2 1
M an
end er
Ġbe ing
Ġgo od
ĉĉĉĉ ĉĉ
ation al
w are
. log
{ čĊ
Ġus ing
_ B
Ġ: =
_ w
ist s
l ish
Ġst ud
ĠA l
Ġg u
con fig
ur ing
t ime
ok en
ames pace
Ġre quest
Ġch ild
Ġ Ã
lo b
Ġp aram
Ġ} čĊ
0 1
Ġe cho
f unction
**************** ****************
p s
E lement
al k
lic ation
b y
S ize
raw ing
Ġp erson
ĠĠĠĠĠĠĠĠĠĠĠĠĠĠĠĠ Ġ
\ n
ob ject
in ce
E n
F ile
u f
ff ect
A C
Ġst yle
sum mary
Ġ que
_ r
Ġ( $
M odel
id ent
Ġm ethod
I L
ot t
les s
IN G
Ġ( )
Ġex pect
y nc
p ackage
3 5
ur s
Ġpro t
. /
p re
Ġ )Ċ
m a
Ġs ur
Ġf ound
In fo
p ar
im es
. e
ain s
Ġp ost
- d
4 5
ole an
Ġs l
P E
Ġsu ch
se lect
ain er
Ġth ink
Ġdif fer
. r
/ **Ċ
F F
o ol
pl ate
qu al
ĠF or
Ġm uch
u c
( new
od ule
Ġs om
Ġh ttp
ĠL ist
Ġc ount
Ġin st
ch ar
m it
. id
ak ing
Ġg ener
p x
v ice
3 7
_ data
ĠN ULL
} čĊ
id d
ãĢ Ĥ
Ġm ed
or g
id er
ach e
w ork
Ġc heck
we en
Ġ( (
th e
ant s
> <
. B
- c
Ġop en
Ġe st
ĠĠĠĠĠĠĠĠ Ċ
Ġn ext
I M
Ñ Ĥ
O T
Ã ³
Ġf ollow
cont ent
ĠĠĠĠĠĠĠĠ ĠĠĠĠ
Ġin clud
H E
ĠR es
Ġh ref
Ð ¸
Ġc ar
yp es
im age
U n
Ġbo ol
A D
Ġg ame
.F orm
row s
* /
vel op
.D rawing
Ġp ath
is ion
Ġe ach
ĠP l
_t ype
P ath
ne ction
Ġa v
' ).
Ġsup port
EN T
re m
" ).
Ġo wn
Ġc or
c ount
m iss
u ally
Ġm em
st d
i ence
se arch
" ĊĊ
F orm
Ġs ex
en ame
Ġs ign
Ġ et
ĠĠĠĠĠĠĠĠ ĠĠ
', '
ĠA pp
Ġth ose
o ff
Ġ err
Ġs ystem
Ġbe st
c ode
Ġs ame
Ġd i
us s
Ġc reate
ath er
A rray
. in
f e
S ervice
U N
at s
Ġ Z
al th
Ġm ade
tr ue
A B
Ġm ark
r id
if ied
, čĊ
y n
p ress
Ġg roup
Ġf in
ĠL icense
F ield
eg er
Ġw orld
in ess
t y
Ġpro cess
( b
Ġc re
ar n
iv es
Ġm ain
ide o
3 6
_ g
A G
val id
im g
P I
Ġc olor
Ġre port
Ġt ake
ri b
O M
Ġd ay
Re quest
Ġs k
b ers
ĉ s
.A dd
o ot
Im age
Ġcom ple
ol lection
Ġto p
Ġf ree
A S
D e
ĠO n
I G
9 0
et a
D ate
Ġa ction
3 4
O ver
it or
ĠĠĠĠĠĠĠĠĠĠĠĠĠĠĠĠ ĠĠĠĠĠĠĠĠĠĠĠĠĠĠĠĠĠĠĠ
n ot
Ġind ex
h er
ic on
O n
;čĊ čĊ
iv ity
m and
.W indows
O L
Ġre al
Ġm ax
l and
.. ..
r aph
Ġbu ild
le g
ass word
? ĊĊ
âĢ ¦
o ok
u ck
Ġm essage
t est
iv ers
3 8
Ġin put
Ġar t
Ġbet ween
G et
ent er
g round
en e
Ã ¡
.l ength
N ode
( i
C lass
f or
ĠâĢ Ķ
t en
o in
Ġ ke
u i
ĠI N
Ġt able
s ub
ĠL e
Ġhe ad
Ġm ust
//////// ////////
. util
Cont ext
Ġor der
Ġm ov
o ver
Ġcont in
Ġs ay
st atic
.T ext
Ġclass Name
pan y
Ġt er
he ad
r g
Ġpro duct
Th is
. âĢĿ
ĠB ut
7 0
lo y
Ġd ouble
s g
Ġpl ace
. x
m essage
Ġin formation
pr ivate
Ġo per
c ed
d b
"> </
P aram
ic le
Ġwe ek
Ġpro p
t able
id get
pl ace
P rop
ĠA ll
el s
bo x
.ĊĊ ĊĊ
. R
ĠT o
it er
S h
ur ation
old er
_l ist
c ome
Ġs w
iz ation
ĉf or
b l
Ġpro gram
( e
a pe
che ck
.Form s
Ġu nd
ateg ory
7 5
ag s
Ġres ponse
U S
re quest
Ġstr uct
es cription
Ġc ode
_ H
uff er
Ġwith out
lob al
Man ager
il ter
P O
ĉ this
o ption
Ġs ol
Ġ= ==
ak es
Cont roller
4 4
M essage
Ġre f
e ver
ĠS o
ain ing
.app end
Ġst ill
Ġpro vid
Ġass ert
m ed
Ġc ap
us iness
Ġre p
t ings
v ed
. N
ap i
O D
Ġf ield
iv en
ot o
âĢ ľ
c ol
( x
g ht
Res ult
C ode
. is
l ink
Ġc our
A n
Ġte am
ĉ int
if t
5 5
Ġse cond
Ġgo ing
Ġr ange
_ E
n ess
3 9
Ġf am
Ġn il
ĠC ont
ail able
ut es
at ab
Ġf act
Ġv is
( &
ĠA N
3 1
A l
t itle
Ġand roid
C E
\ "
ir t
Ġw rit
Ð ½
ĉ m
ft ware
on d
Ġre t
os ition
Ġh ome
Ġle ft
arg s
mer ic
4 8
Ġd irect
oc i
P l
A s
re t
ad o
O f
ch n
ĠG et
e e
ro ss
() ;
__ __
.p h
I t
out e
Ġex per
cho ol
ww w
} ,
Ġall ow
Ġ Â
() )
s ize
is m
a i
tr act
an e
.. .ĊĊ
cont ext
Ġbe g
C H
Ġp age
h ip
n o
c ore
s p
Ġdiffer ent
i able
ĠM e
_ IN
b utton
ĠI s
erv ices
Ġc a
Ġa round
A pp
r ation
Ġre ce
Ġre ally
Ġim age
Ġt arget
Ġde p
opy right
tr a
ing le
it al
L ayout
Ġbo th
Over ride
ar m
= >
ater ial
ile d
Ġp ut
Q u
Ñ Ģ
un g
m ap
ĉĉĉĉ ĉĉĉĉ
Ġle vel
Com ponent
bo ok
cre en
_ RE
Ġcon fig
ã ģ
O r
. data
Ġd ocument
", "
trib ute
u x
L og
fer ence
p ost
_ e
Ġloc al
and om
ass ert
V al
lect ed
in a
atab ase
A dd
Ġcont ent
.p rint
s igned
r ic
." ĊĊ
Ġf a
! ĊĊ
- f
iv ed
Ġ quest
. ex
Ġf loat
Ġde velop
Ð¾ Ð
M ap
ad ing
Ġpos s
U E
n amespace
_ O
ĉ b
.G et
> (
j son
etail s
6 6
Ġto o
Ġext ends
ĠN one
Ġf ore
( String
form at
Ġg reat
int er
ca le
Ñ ģ
r on
iv ing
E nt
enc y
x t
o y
0 5
Ġmon th
Ġh app
Ġsup er
b ar
def ault
_ de
ord s
l n
( {Ċ
ĠI nd
as es
Ġt itle
Ġcont ext
0 8
o h
- p
E m
Ġm et
T est
Ġl ife
_ v
ĠU S
U I
oc ation
m d
Ġ[ Ċ
Ġ ]
s w
Ġin cre
s cript
ent ial
w ays
. de
Ġs rc
Ġc atch
ĠA meric
// Ċ
ĠĠĠĠĠĠĠĠ ĠĠĠĠĠĠ
Ġp ay
pl it
âĢ Ķ
Ġc oun
ob j
.ph p
Ġch ange
eth ing
' re
ast er
lo s
l ation
ĠĠ Ċ
L e
Ã ¤
( {
read y
ĠN o
Ġpos ition
Ġo ld
Ġbo ok
able d
b ug
20 2
H and
} ;ĊĊ
is play
av ing
0 4
Ġgo ver
Ġv ersion
S ystem
n ect
res ponse
St yle
U p
ang u
Ġth ree
in it
er o
Ġl aw
end if
Ġb ase
em ail
( l
_ V
Ġcon f
AT E
Ġd uring
t es
Ġcon sole
ĠP r
Ġs pe
v es
6 5
p ath
ial og
d ition
_t o
ard s
Ġagain st
et work
ĠP h
_ L
c ur
im it
W ith
Ġp ower
i um
' ;ĊĊ
Ġw om
le ft
our ces
at ri
ĠI m
ĠM an
or th
$ {
8 8
qu als
es e
_s ize
Ġis s
ot al
- g
i que
r ame
Ġw idth
er g
) (
itt le
T R
ĠThe y
enc es
0 2
r l
on s
Ġl abel
. y
- t
up date
an el
s c
.t o
Ġpro ject
Ã ¼
Ġe lement
Ġsu ccess
ĉĉ Ċ
.s h
r am
ch ed
() )Ċ
Ġ( Ċ
Ġd ate
Ġto t
_ ST
A ll
ific ation
ĉ var
Ġt ri
ch em
m y
Ġb ig
ĠA d
ĠA t
ot s
n um
A ct
Ġm ap
er a
co pe
. $
, âĢĿ
Ġp op
Ġf ew
Ġl en
u id
et ers
u les
Ã Ń
s ource
http s
Ġd em
Ġe ar
######## ########
Ġm atch
or ies
4 9
ac es
ĠC l
Ġn ode
7 8
ir c
loc al
un ity
} ;Ċ
Ġan other
< <
og le
Ġs it
ew ork
T E
. I
N S
olog y
ou ght
.C ont
> >
Ġc are
st ate
ĉ private
Ġe ffect
++ )
_f ile
end ing
L ine
F or
i or
ĠS c
Ġf un
.S ize
ĉ else
] )
st art
v ious
Ġ} ,
our s
Ġle g
Ġs ervice
Ġs ince
ir on
L abel
Ġn on
Ġl os
ict ion
Ġf ull
act er
bo ard
g ress
Ġt urn
ith er
0 9
.s ize
Ġb ody
res h
et urn
19 9
( _
y les
orm al
p i
Ġsom ething
! --
u int
Ġpro du
Ġst and
Ġpro ble
Ġav ailable
m t
ĠB l
Ġ ...
Ġb lock
In put
Ġke ep
C ount
op en
Ġ[ '
Ġth row
uild er
A ction
Ġth ings
Tr ue
Ġ url
ĠB o
print f
Ġre d
j s
.c reate
ĠO r
St atus
In stance
Ġcont rol
Ġcom e
Ġc ustom
loc ation
0 7
m odel
Ġ čĊ
Ġs ource
Ġe as
. out
] ĊĊ
one y
Ġaw ait
Ġpart ic
A P
ub lish
od es
_p ro
p ly
rit er
Ġpro v
Ġm ill
H T
] )Ċ
Ġch ang
Ġas k
ĠĠĠĠĠĠĠĠĠĠĠĠĠĠĠĠ ĠĠĠĠĠ
Ġout put
Ġem ail
6 8
.p ush
Ġ} čĊčĊ
in ation
4 7
atri x
T able
u ccess
] );Ċ
ĠĠĠĠĠĠĠĠĠĠĠĠĠĠĠĠ ĠĠĠĠĠĠĠĠĠĠĠĠĠĠĠĠĠĠĠĠĠĠĠ
Ġdis c
( [
Ġb usiness
he ight
. html
t a
f ield
Ġrequire d
_ R
Ġgover n
} čĊčĊ
le x
5 00
. ,
ĠS et
ur ch
// /
t s
a f
Ġm ight
ist ory
S tr
Ġne ver
Res ponse
ar se
ad a
ĠH ow
Ġ* )
Ġ ;
Ġh ard
A d
Ġinter n
us ed
( data
m od
ann el
Ġn p
ug g
Ġ/ >Ċ
Ġcal led
b ody
Ġch o
( r
_s et
ir d
Ġ> =
Ġ} ;Ċ
Ġo ptions
ĠG ener
Ġhe ight
P oint
Y ou
et y
C lick
Ġsm all
Ġ ide
Ġacc ess
angu age
Ġprot ected
Ġj ob
ĠTh ere
D ef
Ġadd ress
Ġu int
N ot
o o
ap s
< div
ain ed
at ur
Ġs um
- w
ĠD ate
Ġl ittle
Ġf ri
Y PE
Ġp ort
e h
pr ing
_p ath
Ġst atus
0 6
a im
bo ol
Ġap pe
Ġo s
. name
ens ion
_ G
Ġup date
Con fig
a ff
ER R
Ġ< =
at ely
# if
u ction
9 5
ĠT e
Ġl ink
ĠU ser
.f ind
. org
m e
Ġg iven
O ut
# endif
Ġbet ter
P age
Ġfe el
en n
M L
Ġal ready
Ġinclud ing
o ogle
r u
ic ally
pro p
le an
out er
Ġal ways
ord ing
I f
or age
Ġp arent
v is
ĉĉĉĉ ĉĉĉ
Ġg ot
st and
Ġle ss
/ s
ĠA ss
ap t
ire d
ĠA dd
Ġacc ount
p loy
Ġd er
res ent
Ġl ot
Ġval id
ĉ d
Ġb it
pon ents
Ġfollow ing
_ ex
S ON
Ġs ure
oc ial
Ġp rom
ert ies
he ader
.p ro
Ġbo olean
Ġse arch
k en
Ġor ig
Ġ er
E d
E M
a ut
l ing
al ity
By Id
b ed
ĉc ase
4 6
eth er
pos it
Ġinv est
ĠO R
Ġs ays
miss ion
AM E
Ġtem p
o ad
Ġre st
in fo
Ġinter est
A rg
Ġper form
pon s
ĠV iew
Ġv er
l ib
( const
U til
List ener
ar ge
7 7
Ġm ult
Ġd ie
Ġs ite
../ ../
E L
Ġval ues
Ġ} )Ċ
p en
N o
ic ro
Ġbe h
Ġ' ./
ac y
re c
() ->
ĉ ĠĠĠ
" ))
Cont ent
_ W
ple ment
Ġw on
Ġv ideo
ad i
p oint
% %
0 3
Ġg l
erv ed
v iron
I F
ut ed
ã ĥ
' m
Ġc ert
Ġpro f
Ġc ell
ar i
Ġpl ayer
a is
Ġc ost
Ġh um
( R
Ġoff ic
k s
.t ext
at ures
Ġtot al
Ġ*/ ĊĊ
o pe
Ġst at
U M
Ġlo ad
ight s
Ġc lear
u ro
Ġte chn
up port
I R
Ġ row
Ġse em
Ġ q
Ġsh ort
ĠN ot
ip p
G roup
se ction
m ax
ir l
Ġover ride
Ġcom pany
Ġd one
" );čĊ
Ġg re
. Re
Ġbel ie
r ist
Ġhe alth
AN T
() ĊĊ
ĠB e
. value
ĠG r
ott om
Ġarg s
P T
st atus
f unc
um ents
- h
N umber
: čĊ
ĠL og
er ver
Ġ) ,Ċ
am ent
Ġob j
in c
Ġchild ren
ic y
I Z
and s
ab ly
Ġdist rib
Ġc ur
er ial
Ġd ays
re ated
re ct
- l
ir m
idd en
om b
Ġin itial
.j s
Ġ â
Qu ery
Ġon line
im al
. con
a u
U rl
cont rol
ire ction
Ġin stance
OR T
ĠF r
wh ere
Ġjav ax
Ġorg an
ap ter
Ġre ason
o ptions
5 9
ĠM ar
( a
Ġwith in
.âĢĿ ĊĊ
O DE
_ DE
ad min
end ed
Ġdes ign
ĠD ata
un e
ĠF ile
ro ot
Ġc ent
Ġa rr
_ add
l en
p age
, '
_ str
Ġb ro
ab ility
ou th
5 8
/ c
p ose
irt ual
ear ch
_ url
arg in
H ttp
Ġs chool
av a
Ġcons ider
.l abel
ĠA rray
4 2
we b
o pt
.print ln
ul ation
Ġf unc
P L
Ġ" \
ĠT ext
act ory
(f unction
n ull
Ġen g
d own
Ġin clude
ĠE n
ĠD r
Ġd b
! !
s ide
Ġin it
quire d
ĠS he
C olumn
re act
Ġan n
Ġst op
Ġl ater
ĠTh at
ent ion
d f
U G
I LE
Ġc lient
ra ft
ff er
PO ST
el per
Ġlo ve
qu ote
ou d
Ġj son
Ġab le
Ġm en
A X
ĠC opyright
Ã ¶
av ig
re q
C lient
} );Ċ
.C om
er c
il t
pec ial
_c om
ro om
. Name
Ġg ive
am b
i ke
Ġcon dition
cl ient
ator s
: "
Ġc opy
ut ure
ivers ity
ern al
{ {
ĠC an
ou nc
d o
Ġo cc
Ġapp ro
th ers
z e
Ġe ither
ĠF l
Ġimport ant
Ġle ad
at tr
AR T
E qual
Ġd a
et ch
ent ity
Ġfam ily
add ing
Ġo ption
Ġex ist
ic a
ĠO bject
6 9
' ve
v ers
ition al
6 7
out put
ĠTr ue
ĠO F
_t ime
Ġof fer
Ġ} );ĊĊ
H ER
eg in
" "
Ġw ater
Ġc he
ĠM y
ore d
Ġst ep
anc es
C K
A Y
à ¸
str uction
( C
3 00
ou ch
St ream
act ive
am a
Ent ity
pro duct
() {Ċ
Ġgovern ment
ĠI D
aj or
A nd
Ġdis play
Ð »
Ġt imes
Ġf our
Ġf ar
Ġpres ent
ĠN S
Ġ\ Ċ
ue st
Ġb as
e cho
ch ild
if ier
Hand ler
Ġl ib
Prop erty
trans lation
Ġro om
Ġon ce
Ġ[ ]
cent er
================ ================
Ġresult s
Ġcontin ue
Ġt alk
_ get
Ġg row
.s w
e b
ĠP ublic
O P
ec ute
ol s
Ġ **
" );ĊĊ
Ġm ass
ure d
.c lass
om ic
Ġme an
ip s
Ġa ut
);čĊ čĊ
Ġun til
Ġmark et
Ġare a
u it
Ġl ength
ĠW ith
struct or
e vent
"> <
ĠS p
I V
Ġm us
if f
Ġk ind
a uthor
ound s
m b
_ key
4 1
w idth
posit ory
Ġl ight
u k
R ow
oh n
al f
viron ment
app er
ollection s
Ġs ide
_in fo
Ġex ample
im ary
Ġw r
Ġc amp
cri be
25 5
" /
Ġm iss
w ay
Ġb ased
Ġpl an
V is
om ain
un k
Ġaw ay
U P
< T
O S
i od
ĠM on
âĢĻ re
Ġli k
Ã §
iv ely
. v
im er
iz er
S ub
Ġbut ton
ĠU p
Ġexper ience
C L
Ġre nder
_ value
Ġn ear
UR L
al t
Ġcoun try
ib ility
5 7
() ,Ċ
e ad
Ġa uthor
Ġspec ific
b ase
( name
on es
ĠD o
Ġal ong
y ear
Ġexp ress
. '
en v
Ġbeg in
Ġso ftware
Ġim p
Ġw in
Ã³ n
Ġth ing
Tr ans
ĠT HE
Ġ< ?
Ġwh y
Ġdoes n
i j
g ing
ĉ g
Ġs ingle
off set
ar ning
og raph
le y
_c ount
Ġan al
cre ate
/ m
ĠR eg
9 8
un ch
= $
is k
Ġright s
( M
Ġ"" "Ċ
ap er
.m odel
Ġp o
em pty
art ment
Ġa nt
ĠWh en
Ġwom en
ĠE d
Ġse ason
Ġde st
Ã £
( h
Ġposs ible
Ġse ver
Ġb tn
Ġdid n
Ġs ent
Ġen c
Ġcomm and
Ġ ],Ċ
_ x
Ġre cent
ol ution
v ector
ĠB y
ĠM ay
ĠA ct
» ¿
Ġm oney
IN T
bs ite
ĉ p
. čĊ
ï »¿
s l
atter n
ĠC lass
Ġto ld
ud io
c urrent
Ġe qu
Ġa uto
ĠSt ate
d a
ms g
)) ;ĊĊ
Ġwork ing
Ġqu ery
ĠB r
Ġw indow
a uth
on ly
ĉ t
Ġle ast
ag n
Ġex pl
it ter
ar ing
Ġc olumn
ĠGener al
": "
er al
ri or
Ġrec ord
I B
E X
Ġd at
Ġm aking
u ed
ĠC ar
em p
" .
ĠM ed
Ġc lose
Ġper cent
Ġp ast
( g
: (
Ġw rite
Ġm ove
Ġp at
Cont rol
.T o
Ġv i
*/ Ċ
in ate
' ll
ag ed
N ull
Ġspec ial
IZ E
Ġc ity
/* Ċ
ĠE ng
ix ed
in ary
p y
Ġe ff
ar io
Ġt ell
av or
Ġse lect
le vel
im um
op er
B uilder
I P
') ,Ċ
es c
Ġf ont
" ;ĊĊ
ĠA m
ish ed
ill s
Int er
O W
Ġcour se
Ġl ate
idd le
4 3
Ġam ount
Ġas ync
in o
c ul
Ġ ì
and le
_ user
Ġb en
ĠC al
Ġ$ _
ĠR ep
Ġen ough
T oken
. user
( j
S c
W idth
n ow
at form
Ġlook ing
Ġh old
M odule
IT Y
v o
is on
.D ata
y c
Ġp ot
ĠTr ump
id ual
id es
r t
Ġprop erty
ĠĠĠĠĠĠĠĠĠĠĠĠĠĠĠĠĠĠĠĠĠĠĠĠĠĠĠĠĠĠĠĠ ĠĠĠĠĠĠĠĠĠĠĠ
am ework
g o
Ġl ow
Ġpar a
Ġpr ice
ur y
Ġto day
ro y
Ġ' /
Ġpol it
Ġ' '
ym b
P h
Ġad v
Ġatt ack
ĠS te
RO M
4 00
an a
Ġme ans
Ġst ory
id s
ak en
Ġme et
Ġm om
ĠâĢ ĺ
Ġ? >
Ġd en
ob ile
ch ange
ĠĠĠĠĠĠĠĠ ĠĠĠĠĊ
ic i
n a
ĠF orm
Ġs ort
Se lect
p are
Ġth ought
_ con
Ġt ask
oc us
ĠD E
ĠM in
Ġo pt
ĉb reak
um er
K E
th en
Ġd et
ĠT est
port s
Ġre view
(' /
m ove
Ġsw itch
ER T
p atch
ann ot
ã Ĥ
Ġab ove
it ive
5 6
Ġquest ion
ĠQ u
ãĢĤ ĊĊ
g le
Ġw ord
Ġprov ide
ĠR eturn
Ġre search
Ã£ o
u str
Ġp ublish
chem a
} }
ĠC ON
- in
all back
Ġco ver
\ \
c olor
ĠI S
Ġwh ether
im ate
is c
B ar
Ġd iv
B e
our n
Ġh aving
le m
pl ayer
ab s
am era
ne y
Ġex c
get her
pl ied
a o
[ $
Ġ+ +
i pe
sh ow
/ d
[ :
ag ement
le v
_ ID
9 7
r ary
ad es
_ se
a use
Ġem ploy
Ġ*/ čĊ
Ġf re
Ġ' @
Ġcomple t
Ġl arge
r al
\ x
Ġf ac
< String
Ġcre ated
up er
.st ate
Ġh ost
ener ic
/ b
( !
wh ile
i as
B UG
Ġ );ĊĊ
Ġro le
Re g
ĠC olor
St art
Ġp orn
t op
Ġwe b
Ġde v
Ġde al
++ )Ċ
Int eger
pos ition
. on
Ġ( "
ä ¸
Ġproble m
s v
Ġp ress
AB LE
AT ION
ĠSe e
an ch
Ġth ough
le ep
Ġ< !--
Ġpoint s
ĠĠĠĠĠĠĠĠĠĠĠĠĠĠĠĠ ĠĠĠĠĠĠĠĠĠ
. J
Ġ ::
p tr
D B
++ ;Ċ
.p ng
n ode
so ft
pon d
Ġe ver
-------------------------------- --------------------------------
M enu
(' #
Ġs ervices
p g
} )Ċ
param s
Ġact ually
Ġ" /
Em pty
M ethod
Ġid ent
un ic
Ġmill ion
Ġa ff
st yle
Ġcon c
i os
ign ment
UL T
P r
" ;čĊ
Ġunder stand
u ary
Ġhapp en
Ġser ver
ĠC o
S C
Ġle s
Ġfile s
G rid
s ql
Ġof ten
Ġin fo
_ tr
s rc
on y
Ġsp ace
um b
Ġpass word
Ġst ore
, ĊĊ
ĠWh at
g ed
ĠF alse
U s
sw er
_ index
Ġform at
m ost
s m
N ew
Ġd etails
Ġpro b
ĠAN D
() čĊ
il ar
Ġ$ {
ry pt
.C ollections
$ this
ĠF ree
_ of
(f alse
d ated
Ġ> >
Ġf ace
CT ION
Ġs ave
Ġt yp
de v
(" #
AG E
cont ainer
ed it
Q L
Ġitem s
Ġs ocial
i en
ĠRe act
) .ĊĊ
Ġm ar
Ġre du
ĠR E
.p ut
Ġm ajor
C ell
n ext
Ġexpect ed
Ġy et
Ġin div
trib utes
at is
am ed
Ġf ood
S ource
( string
Ġ+ Ċ
it es
d r
Ġmem bers
Ġcom b
item s
ĠP er
T H
= True
Ġb ar
_ SE
com m
( w
)ĊĊ Ċ
Ġs end
Ġin c
un signed
F A
Ġparam s
app ing
ro s
ug in
f a
Ġcon nection
Ġ} ;ĊĊ
Ġbe come
M ode
Ġe v
Ġdif f
ĠUn ited
He ight
ful ly
im ages
Ġm akes
Ġg lobal
Ġcont act
' :Ċ
Ġab s
Ð° Ð
f loat
Ġex cept
ĠP ol
Ch ild
t yp
Ġcert ain
i Ã³n
O UT
Ġim pro
ile s
Ġ-- >Ċ
ĠP art
val ues
os s
/ **
il it
ĠE vent
cur ity
st er
Ġchar acter
19 8
Ġnew s
Ġ" ,
Ġde vice
c el
log in
he et
Def ault
@ "
ĉ Ġ
c lick
( value
ĠA b
Ġpre vious
ERR OR
oc al
Ġm aterial
Ġbel ow
ĠCh rist
Ġmed ia
co ver
ĠU I
Ġf ail
Ġbl ack
Ġcom ponent
ĠAmeric an
Ġadd ed
Ġbu y
st it
Ġc ame
Ġde lete
prop erty
od ing
Ġc ard
rop s
Ġhttp s
Ġro ot
Ġhand le
C C
B ack
em plate
Ġget ting
_b y
m ail
_s h
. assert
ĠD ec
( true
Ġcom put
Ġcl aim
' =>
ĠS ub
Ġa ir
op s
n av
em ents
( id
Ġent er
ang ed
E nd
Ġloc ation
Ġn ight
Ġdo ing
ĠR ed
l in
}ĊĊ Ċ
vid er
Ġp ick
Ġw atch
ess ages
Ġhum an
Ġd am
p end
d ir
Ġt ax
Ġg irl
re et
Ġbo x
Ġstr ong
( v
re l
Ġinter face
Ġm sg
f ect
_ at
Ġh ouse
Ġtr ack
' );ĊĊ
j e
ĠJ ohn
ist r
( S
ub e
Ġc e
itt ed
V ER
* )
p arent
Ġapp lication
an y
.sw ing
Ġp ack
\ u
Ġpr act
Ġse ction
ct x
Ġun signed
.P oint
ĠO ne
Ä ±
ip le
a id
Ñ ĥ
V ector
by te
Ġw ait
ĠÃ ł
Ã ¥
Ġto gether
Ġth rows
F O
' ))
h ost
is ing
. view
Ġter ms
fr amework
- r
Ġapp ly
Ġs ession
O ptions
ugg est
Ġo thers
w itter
Ġf und
In it
__ (
ens or
G ET
Ġsever al
i i
[ j
I O
Ġtem plate
P osition
Ġe con
ach ine
Ġ il
.s pring
m ain
el t
im ent
Re c
m m
ĠUn iversity
urs or
ĠĠĠĠĠĠĠĠĠĠĠĠĠĠĠĠ ĠĠĠĠ
G L
ict ure
ith ub
c er
c ast
F rom
a les
Ġsub ject
p assword
n y
Ġes c
.w rite
ï¼ Į
Wh at
. H
Ġh istory
ĠF e
Ġindiv idual
un it
Ġ-- >
Ġd u
I ST
Ġus ers
f s
f alse
un t
T itle
Ġm ot
Ġf uture
ach ed
Ġstart ed
Ġm ode
Ġ' <
_ array
Ġa x
'] ;Ċ
i res
Th ere
ug ht
t ml
pos ed
ic ult
Ġto ok
Ġg ames
Ġ} }
Ġ? >Ċ
Ġproduct s
I s
Ġb ad
ĠD es
.p ath
' ĊĊ
ĠP ost
av el
( :
15 0
Ġneed s
Ġkn own
F l
Ġex ec
Ġse en
5 1
um e
Ġb order
Ġl ive
tem p
P er
Ġvar iable
i et
ĠD ef
Ġg e
em e
_b ack
f irst
Ġprovid ed
//////////////// ////////////////
Ġfil ename
Ġh ope
ul y
a uto
f ind
_ string
b tn
it ude
At tribute
Ġyou ng
.t xt
Ġwe bsite
ĠP rop
Ġe y
> ();Ċ
ion al
AR R
iction ary
ur ther
. </
AL L
Ġstud y
il i
Ġn etwork
y l
ist ance
O K
N U
re st
ĠS T
icro soft
Ġl imit
Ġc ut
() :Ċ
Ġc ou
og n
Ġsize of
iv al
Ġw ent
. z
L ink
Ġf ire
Ġac ross
Ġcomm unity
reg ion
N E
Re f
Ġoffic ial
Ġvis it
ol ve
Ġrece ived
Ġto ken
Ġmonth s
Ġan im
Ġpartic ular
st yles
ic o
Ġ ess
8 7
.Cont rol
Ġ Ã©
b all
Ġle arn
ind ing
V ar
Ġde cl
( err
LE CT
O ne
ph a
Ġ ~
f ort
as ure
Ġm ind
ĠE nd
C heck
Ġqu ick
" ),
AN D
ut ions
B ase
____ ____
Ġcom ment
IN E
âĢĻ ve
B ut
ĠE l
ĠU s
Ġad min
m ark
ĠN ame
` Ċ
ĠT ype
am ic
p c
lo or
F T
Ġo pp
ck et
) ->
t x
Ġp ur
u el
ymb ol
u ation
ang er
Ġback ground
ec ess
ef ined
.... ....
Ġdes cription
Ġrep resent
") );Ċ
press ion
row ser
Ġser ies
ward s
5 2
($ _
a ise
Ġh ot
ac ity
ri es
action s
C reate
ad io
amp les
Ġorig inal
ens ive
f ont
st ream
ï»¿ using
.spring framework
00 1
ser ver
Ġb ill
AC K
il ename
Ġfr ame
Ġ= Ċ
Ed it
adi us
Ġd raw
ank s
Ġd eter
Ġcom es
_ int
Ġfore ach
ang le
Ġe lect
pect ed
He ader
ist ration
F alse
ĠG ame
Ġfil ter
Act ivity
Ġl arg
in ition
Ġ" <
25 6
is ed
Ġrem ove
ĠTr ans
m et
se e
Form at
Com mand
ĠE X
N one
Ġfr ont
A SE
ĠR ec
ound ation
Ġv o
9 6
= \"
( *
Ch ange
.W rite
g roup
i ents
u y
******************************** ********************************
Ġd ig
h r
( -
Ġg en
n umber
ve c
uro pe
ent ry
L L
Ġst e
Val id
'] ,
_p aram
Ġse lected
Ġacc ording
ĠD is
Ġ util
B uffer
_ error
Ġass oci
_S IZE
Ġw or
Ġprint f
r ag
Â ł
D D
ĠV al
Ġact iv
E ng
et ime
Ġv irtual
a ign
a ur
ĠP res
ĠEx ception
Ġany thing
ĠO ff
Ġh ours
Ġw ar
Arg s
ag ing
Ġmodel s
ĠT ime
O b
am s
j oy
Ġear ly
. read
8 6
Ġc enter
ĠIn itial
Ġl anguage
l ength
x y
Ġs n
Ġin f
P ost
Ġag o
Ġeas y
_c ode
ĠAN Y
_ ch
Ġdown load
( T
av ed
âĢ ĵ
Ġstud ents
Ġf ig
l ight
x x
Ġbu ffer
ĠD ep
ĠM ath
IT H
Ġvar i
Ġd ue
F actory
Ġp or
Ġe p
ot ype
Ġcan not
Ġwh ite
< int
ter n
Ġreg ister
Ġpre d
cl us
_d ate
Ġ/ **
Ġa uth
Ġ[ ]Ċ
Ġper iod
n own
Ġv ot
Ġs creen
' d
T ypes
Ġt mp
Ðµ Ð
ur al
Ġben ef
_ y
Ġn et
ĠSt ates
'] ['
ĠN e
ĠN OT
Ġn eg
10 2
Ġcomm on
s cope
Ġc red
g es
_T YPE
Ġs uggest
o om
.ĊĊ Ċ
Ġac cept
Ġr andom
er m
ĠV ector
w ith
T ER
( str
Ġres pons
Ġh it
.S et
gr id
ri a
Ġc lick
und le
C ase
ins ert
Util s
Ġ"" "
Ġim plement
at al
tem pt
tem plate
oc r
return s
Ġplay ers
us ers
ed ef
ĠTh ese
Ġam ong
Ġde b
h a
.get Element
Ġc irc
Ġan swer
Ġw alk
Ġt reat
ĠG e
ĠC reate
Ġa ge
Ġre q
O ST
ang ular
Ñ ı
Ġf ive
5 3
Ġdistrib uted
Ġfri end
T P
Ġc lean
ow s
.Control s
d is
Ġw ords
. io
z y
Ġhe ader
ĠC heck
âĢĻ m
j ust
h older
=" <?
ĠG NU
ĠC ol
im est
ent ic
{ ĊĊ
Ġt re
l ast
l a
ĠY ork
L o
Ġdisc uss
ĠG od
Ġiss ue
re w
W indow
Ġl and
1 20
Ġst ream
ĠP ar
Ġqu ality
P ar
_n um
5 4
Ġs al
el ves
OR D
( user
Ġwork s
Ġh alf
ens es
v as
Ġpol ice
(" /
u a
Ġsim ple
Add ress
Ġem pty
es h
12 8
Up date
ĠC reated
(' .
). Ċ
ĠĠĠĠĠĠĠĠĠĠĠĠĠĠĠĠ ĠĠ
Ġag re
ĠF ROM
Ġco ok
Ġevery thing
il ities
.st atus
Ġrel ations
ext ern
Ġno thing
Ġrun ning
ĉ void
R I
_ a
_C ON
p or
.s ub
re quire
ĠC ity
ĠW est
Ġm or
st ore
E quals
od er
Ġn a
Ġ[ [
Ġ( '
ĠD on
ER S
/ p
.j son
ab or
Ġsome one
_t ext
.c ss
.T ab
ĠS ome
at o
d ouble
Ġsh are
( void
_d ir
Ġ ur
St ack
ĠW orld
. X
str act
H ow
.G eneric
ic les
Ġent ry
Ġchang es
Ġperson al
( A
Ġoff set
_p tr
Ġp ie
ĠJ an
-g roup
m odule
Item s
ĠHow ever
ver age
.F ont
Ġevent s
.m in
Ġinv ol
z a
Ġwho le
Ġneed ed
Ġlik ely
ri ef
OR M
v ersion
Ġf ight
Ġe in
F rame
19 7
g en
ĠO ut
avig ation
L ength
il led
qu ence
Ġ! ==
ĠSo ftware
Ġwrit ing
Ġr ate
'] ,Ċ
P anel
in ner
Ġ[ "
Ġt w
c d
Ġ ;Ċ
_st ate
ĠS m
ĠM ark
)) ĊĊ
pro t
ĠM r
m ethod
ustom er
I con
Ġcor rect
( object
ĠM ore
Ġf all
Ġv ol
Ġdevelop ment
ent ly
Ġs i
med i
v ing
P P
ak er
Ġin du
Ġel if
Ġpre t
Ġbelie ve
n s
om et
12 3
ĠInt ern
R ect
S o
. error
Re ad
Ġfe atures
Ġmin utes
-- -
as ing
cre t
"> čĊ
. annot
Ġcol lection
' .
Ġsim ilar
Ġt aken
(" %
Or der
'] Ċ
-m d
ĠT H
ac ed
Ġis n
/ j
Ġs on
gr aph
ĠInt eger
Ġn ecess
re en
Ġ um
Ġ\ <
Ġmom ent
Ġbr ing
Ġind ic
ys is
Le vel
ver se
urre nc
_t est
Ġent ire
D own
Ġ}ĊĊ Ċ
( result
ĠRe ad
Ã ¨
M od
Ġtry ing
") ,Ċ
Ġm ember
ĠC or
OD O
- control
un time
ĠS im
D ialog
pl ot
_ on
Ġph ys
} /
Ġn amespace
ĉ čĊ
ac c
Pl ayer
A RE
8 9
Ġf oot
Ġbo ard
p art
Ġs us
w ise
ĠM c
Ġp ush
AT A
Ġp lease
ri ed
we et
b it
id ed
V E
ĠS w
U B
Ġt ypes
ed ia
Ġc los
ace book
Wh en
Ġed it
ig ger
Ġen erg
Cont ainer
Ġph ot
ĠC ount
ĠE urope
.I s
ĠR uss
pe ed
ĠS tr
Ġp y
Ġc ult
Ġdef ined
cc ount
Ġob t
.L ocation
Ġth read
il le
Ġinst ead
str ong
ĠS ec
U RE
Ġide a
. se
em y
select ed
Con nection
ac ing
th read
.n ext
Ġc oll
Ġfil m
ist ic
Ġcomp et
Ġcon n
th ough
Ġcom pan
ock et
Ġte ach
= (
Ġph one
Ġact ive
7 9
de lete
10 1
tr ies
Ġm o
Ġde ath
} );ĊĊ
oc ol
W idget
Ġart icle
ro du
and id
Ñ ĭ
ĠC r
k a
() :
lo od
ĉĉĉ Ċ
Ġal most
Ġs ell
erv let
ri p
Un it
Ġapp lic
Ġcon nect
Ġfe ature
Ġv ia
' ),
Ġl im
ĠĠĠĠĠĠĠĠĠĠĠĠĠĠĠĠĠĠĠĠĠĠĠĠĠĠĠĠĠĠĠĠ ĠĠĠĠĠĠĠĠĠĠĠĠĠĠĠ
ĠG u
Eng ine
Ġen s
Ġen vironment
b lock
HER E
N ULL
g y
t ag
) ).
ex p
Ġcom pl
Ġinst all
Ġcomple te
que ue
atur al
Ġgener al
th on
Ġask ed
o res
( res
Ġres erved
S P
ĠâĢ ¦
Å Ĥ
Ġsign ific
O ff
ĠĠĠĠĠĠĠĠĠĠĠĠĠĠĠĠ ĠĠĠĠĠĠĠĠĠĠĠĠĠ
ĠA g
ĠJ ust
ĠE rror
Ġin fl
ad ata
Ġ icon
ask s
' '
_ LO
? .
ac count
Ġ( *
' )ĊĊ
r ap
_ var
ĠF OR
Ġpart y
ĠY our
c at
str y
. new
bo ot
ĠN ov
Ġv ector
Ġn ormal
Ġf urther
Re pository
8 00
Ġd atabase
att le
Ġmus ic
Ġspe ed
Ġd oc
pro cess
IG HT
.p arse
Ġt aking
Ġvi ol
ce ed
ĠA fter
Ġfor ward
Ġc rit
"/ >Ċ
ro t
Ġfa iled
ef ore
Ġconc ern
o e
b a
Ġs ender
Ġter m
h as
=" #
Ġpot ential
N um
Ġpublish ed
.c lose
ĠIm age
str aint
U D
ĠO b
Ġprob ably
l im
" :Ċ
olum e
Ġcon sum
7 6
ag ue
ens ions
Ġinvest ig
- year
') ;
-s m
Ġen joy
or ig
er ing
c p
le ased
ple ments
Ġreturn s
p at
B O
ĠH ouse
.L abel
Ġwe ight
igh b
Ġcondition s
Ġex ception
d escription
Ġtr ad
- to
Ġ{ }
Ġmod ule
EN D
. ap
.p rops
Ġcon structor
av es
Ġf avor
ĠN ow
; i
ĠM ain
_ k
er ies
âĢĻ ll
trans form
imest amp
P re
Ġm er
. res
st ant
L ocation
_N AME
Ġlos s
Ġ ĊĊ
n et
Ġeng ine
B lock
Ġiss ues
Ġpar se
ĠB ar
Ġst ay
ĠJ SON
Ġd om
air s
w ner
Ġl ower
", čĊ
ĠD em
uf act
Ġp s
Ġper fect
R L
Ġed uc
l s
em ory
ARR ANT
u ge
Ġex act
. key
al led
e ch
ie f
\ /
o ke
Ġfor mer
al loc
Ġs ix
id a
Ġm argin
Ġhe art
al d
p ack
.getElement ById
ĠW ARRANT
Ġr ather
Ġbuild ing
er man
lic e
Ġquest ions
iz es
le ge
irect ory
Ġj e
Ġc as
pro ps
ut f
Ġse curity
Ġhow ever
we ight
Ġins ide
Ġpres ident
Ch ar
ĠW ITH
.m ap
Ġgr aph
Ġt ag
_st atus
Ġat tempt
op p
us es
ĉ const
Ġr ound
, $
Ġfri ends
Em ail
? >
Res ource
KE Y
os p
. query
ĠN orth
able s
ist rib
_c lass
el lo
Th at
Ð º
pecial ly
ĠPres ident
Ġcamp aign
Ġal t
are a
Ġch all
Ġop port
.C on
Ġenerg y
li ke
. string
ing ton
) *
y y
Ġprof ession
ir th
Ġse g
æ ľ
Ġh or
i ers
c an
Ġbeh ind
Pro duct
f g
ĠS k
.j pg
? :
] ;ĊĊ
Ġcall back
ĠH ttp
Ñ Į
l ong
M S
AT H
Ġr aise
Ġwant ed
row n
ut or
l t
] =
el ine
M A
Ġse par
c s
se mb
D is
bs erv
ĠW ill
Ġpol icy
Ġth ird
ph one
Ġb ed
/ g
. __
ĠIn c
iz ing
.re move
in stance
.t ype
Ġs erv
E ach
Ġh ar
ĠM essage
( key
SE LECT
P os
)) ;čĊ
Ġre comm
Ġtr aining
ĠE nt
ĠCh ar
ic ht
(f ile
Ġp rior
G ame
Ġex it
Param s
.c ore
P C
n es
anc ed
( request
P assword
} >Ċ
Ġm ag
Ġre lease
Ġsh all
ud ent
ĠS outh
and o
: '
.Tab Index
s k
ann er
is set
Ġout side
led ge
Ġ å
ĠR ob
Ġim m
! Ċ
ĠWe b
D es
B C
anc ial
R oute
D ec
fer ences
Ġp urch
ĠM odel
ct or
g n
_st art
_ un
. *
is es
Ġg round
Ġun ique
Ġbe aut
{ "
Ġp our
ĠO ct
Ġt ree
set s
_ res
') ->
_re g
(" \
Ġby te
B l
Ġd ating
Ġm atter
ĠR em
Ġ' ../
ĠA ug
ĠL a
Ġ$ (
ourn al
11 1
i am
Ġshow s
w rite
Ġb all
Ġsim ply
Ġf ast
Ġmem ory
A SS
ĠO f
ov ed
ant e
a ul
ist ry
)) );Ċ
Ġf it
< string
Ġpolit ical
anc el
_ .
c ard
.c urrent
o ch
_ image
\ t
# Ċ
( L
Ġindu stry
com ing
Ġex tra
6 00
Ġreport ed
.st art
Ġres ources
Ġim g
fl ow
_E X
(n ull
ĠP re
Ġwr ong
inter face
Param eter
n ers
á »
t ure
ers ist
oun try
Ġseem s
al ance
de st
ĉ String
Ġm aint
Ġun it
act ers
ĠT R
if ul
export s
pro ject
App lication
leg ate
Ġt akes
ter m
Ġet c
ust er
Ġappe ar
add ress
Ġf em
h s
Ġh om
, -
Ġdiff icult
Ġcom ing
O pen
Ġset tings
ĠW ar
ĠTh en
Ġaut om
ĠF oundation
Ġqu ite
D escription
Ġb log
i qu
P S
1 10
_f ield
J son
SS ION
ĠS ch
ĠL O
Ġdes cri
Ġevery one
Ġpret ty
Ġlong er
Ġm enu
Ġcurrent ly
se c
Ġrelations hip
################ ################
ĠM ap
as et
Ġparam eters
Ġcr ush
" čĊ
IL ITY
ig ration
Ġc out
t otal
Ġn ames
nd ef
") ;
ri end
yn amic
Ġeff ort
Ġact ual
Ġfield s
O UN
t ers
25 0
Ġf ix
_m odel
Ġc ases
C A
M y
Inter face
ĠS E
19 6
] ]
al le
ĠN ational
ĠArray List
in line
. V
ar a
ref ix
as c
Re ader
ĠÐ ¿
ast ic
( ()
C l
.annot ation
Ġperform ance
ail y
.to String
.n et
view s
. end
ay ers
l ate
ĠA pr
ed eral
'] )
.b ody
Ġhigh er
_f l
c r
al ert
_n ode
ĠG oogle
Ġit self
A uth
urrenc y
Ġsignific ant
app end
Ġres pect
str ap
Ġun a
riter ia
P ORT
.ap ache
Out put
Ġpro gress
Ġm id
ĠM icrosoft
Ġres ource
ab lish
Ġd im
. load
.A pp
Ġd irection
Ġadd itional
ĠĠĠĠĠĠĠĠĠĠĠĠĠĠĠĠ ĠĠĠĠĠĠĠĠ
Ġnum bers
Ġcompan ies
.T h
Ġs ound
user name
Ġstat ement
Ġal ert
Ġcon tract
h ome
_l ength
.Com ponent
e v
. Ex
ï¼ ļ
" ;
ĠH igh
Ġ )ĊĊ
ĠP oint
op h
Ġl ines
-> _
" )ĊĊ
o x
app lication
Ġ ]Ċ
ĊĊĊĊ ĊĊ
18 0
Ġso on
ction s
ing er
Ġj oin
ĠP e
Ġ ë
Ġl as
. E
c ss
/ or
ĠSt art
ĠT O
Ġsub s
con n
com ponents
DE BUG
qu are
F unction
end ar
. index
Ġf ill
Ä Ļ
Ġcho ose
h ow
ĠAmeric a
ass ets
-------- ----
ĠV alue
Ġoff ice
Ġv eh
Ġtrans form
ĠAr t
Ġin de
Ġf n
Ġim plements
ang o
ple te
+ "
t mp
am ily
Ġhas h
miss ions
E ST
g t
Pro vider
ĠĠĠĠĠĠĠĠĠĠĠĠĠĠĠĠ ĠĠĠĠĠĠ
Ġfl ag
Ġpartic ip
d en
ĠReturn s
Ġnot e
Ã¼ r
p m
ide os
Ġspec ified
ĠE N
est er
ol id
Ġup on
( std
ĉ v
Ġ' \
u z
Ġv ert
Ġv ict
ĉ self
Ġ" $
8 5
. k
Ġgroup s
g ithub
l ang
Ġm ut
T O
Ġv e
ĠP lease
;ĊĊ Ċ
ac cess
Ġ{ "
re a
Ġr isk
ick er
og gle
ĉ while
AN G
.s end
7 2
Ġwom an
Ġget s
Ġ ign
ĠI d
_ log
ON E
Ġe vid
ĠH ar
_s ub
Ġend l
Ġinclud ed
() );ĊĊ
ĠA p
ig r
Ġs em
ĠBl ack
d oc
_t able
ĠĠĠĠĠĠĠĠĠĠĠĠĠĠĠĠĠĠĠĠĠĠĠĠĠĠĠĠĠĠĠĠ ĠĠĠĠĠĠĠĠĠĠĠĠĠĠĠĠĠĠĠĠĠĠĠĠĠĠĠĠĠĠĠĠ
- up
Ġca use
Ġ ..
Ġv an
_d ict
Ġf ocus
IN D
CE SS
.L og
Ġmult iple
id o
Ġreg ard
- M
and ler
our se
Ġde g
. U
Ġadd ition
Ġvar ious
Ġrece ive
Ðµ Ð½
ĠH T
Ob j
D F
Ġincre ase
ĠO pen
] ;
Ġcomm it
? Ċ
ateg ories
at ory
sh ip
ĠM ich
Ġh tml
rom ise
Ġle ave
Ġstr ateg
av en
ĠCon sole
k nown
- n
_ LE
.com ponent
Ġb re
S ession
i ance
Ġal ign
typ edef
_ result
ĠW HERE
.s plit
Ġread ing
FA ULT
Ġc lo
Ġnot ice
_p r
ar ter
Ġlo ck
Ġstand ard
et ic
ell ow
Ġp adding
ĠH is
Ġst ates
_c ast
( P
a a
Ġintern al
e an
ĠP RO
ĠK ey
Ġes pecially
m ing
Ġc ross
Ġn ational
_ object
f ilter
Ġs cript
. update
_ i
ĠAss ert
/ core
%% %%
Ġproble ms
ist or
Ġ. =
Ġar ch
Ġwrit ten
Ġm ilit
M ENT
. ch
ca pe
ĠM us
_ config
ĠA PI
fo ot
Ġim ages
end l
. In
F irst
Ġpl atform
.pro t
O ption
st e
ĠT ODO
Ġfor ce
. cont
ĉ echo
ĠD av
P tr
( B
R T
ĠB ase
] ['
Ġann ounc
con sole
ĠP y
d s
. as
Ġpre vent
ap an
Ġ{ '
} </
ĠS ervice
ĠS en
ad or
pro file
T op
Ġit er
p o
I ES
J SON
I E
i ant
ãĢ ģ
_ j
ĠSe pt
_m ap
b um
( context
ĠH ome
i ans
G B
6 3
Ġl iving
Ġp attern
( input
ic ient
99 9
C ore
Ġent ity
Ġint eg
Ch anged
Ġuse ful
.in fo
Ġto ol
( item
Ġo k
Ġfe ed
I X
Ã© s
ĠNew s
rem ove
err y
ĉĉĉĉ ĉĉĉĉĉ
ip ment
a res
D o
C urrent
. content
.G roup
ustr al
Ġ Ñģ
} )
Ġpop ular
Ġst re
Ġmethod s
_ ERROR
Le ft
c al
bs p
.To String
Ġd ir
Ġallow ed
Ġimp act
") ]Ċ
6 2
. config
Ġelement s
Ġpro te
Ġtr ain
. tr
r s
ĠRep ublic
ĠT ask
6 1
ar ies
( D
( get
âĢ¦ ĊĊ
Ġrel ated
Ġv ers
Ġs il
Ġ" ";Ċ
Ġc md
Ġtechn ology
.w idth
F loat
ĠU se
B ody
sh ould
.j oin
F ont
ll um
yc le
ĠB rit
Ġm it
Ġs cale
Ġ( _
ern el
") )Ċ
Ġsc ore
/ v
Ġstud ent
U C
.sh ow
Ġa verage
En abled
( ex
com mon
im ation
: @"
ch ie
Ġ ...ĊĊ
r iver
ĠM arch
c ategory
f in
Ġcour t
Ð ²
S erver
Ġcont ainer
- st
_f or
Ġpart s
Ġdec ision
ob s
ou b
m itted
Ġ$ ('#
Ġs aw
Ġappro ach
IC E
Ġsay ing
Ġany one
m eta
S D
Ġs ong
d isplay
O per
out es
Ġch annel
Ġchang ed
Ã ª
Ġfin ally
_n umber
P lease
à ¤
or ing
- re
Ġk ill
Ġdr ug
w indow
Ġcon vert
omb re
Ġw ays
H elper
ĠF irst
( __
ur ity
ĠW indows
e es
Ġm at
r apper
Ġpl us
ang es
" ].
az on
/ t
l at
ast e
Ġpro file
Ġread y
#if ndef
ro te
Ġs ense
G ener
ĠCon fig
om y
ĠJ une
Ġlate st
Ġsa f
Ġreg ion
Ġde ep
w itch
ĠP ark
} `
ĠF rom
I I
Ġc v
Ġre ach
Ġcount er
ĠW ork
ĠU RL
ĠUp date
', čĊ
Ġim medi
c lose
ad os
fer red
Ġweek s
ur g
Ġdam age
Ġl ost
an i
_ lo
Ġhim self
Ġd og
) ]Ċ
ï ¿
p ir
t t
Ġp aper
Ġthe ms
se cond
Ġst aff
ĠIn put
" +
ĠF acebook
Ġal loc
Ġs ched
AC E
Ġthems elves
ĠCom ponent
Ġdr iver
j a
(p ath
Ġc ategory
all s
p u
llum inate
ĠA ction
.b utton
ĠG L
ist ics
Ġo il
Ġst ock
> '
Ġde ad
V AL
Q UE
**************************************************************** ********
Ġch arg
R eturn
Ġf ul
d om
Ġr ules
Ġmod ify
Ġe val
h am
at ement
\ <
ul a
= False
R A
Ġcont ains
7 4
Ġst ack
m ar
Ġ{ }Ċ
Ġund efined
A ss
ĠCh ina
ve y
* Ċ
Ġplay ing
) /
act or
Ġb ottom
li er
ĠN umber
Ġcou ple
D C
ĠS O
g or
.set Text
s uccess
com mand
F ilter
ĠO ur
_ item
Ġc tx
Ġro ad
V ersion
c ase
ur t
av ior
y ch
semb ly
ĠPro duct
Ġh eld
a fe
Ġinclud es
< quote
Ġa void
ĠF in
ĠM od
Ġt ab
an o
Ã ±
ipp ing
- e
Ġins ert
t arget
ch an
.M odel
IM E
\ Ċ
Ġm achine
av y
ĠN O
ĠInt er
Ġoper ation
mod al
T ag
] :
Ġprodu ction
Ġare as
Ġre n
_f rom
n bsp
Ġoper ator
m en
app ed
_p er
z en
(" .
.s ave
=" {{
Ġt or
( response
Ġc andid
Ġcon v
a iled
ĠL ib
com p
ur a
ï¿ ½
ĠH ere
Ġarg ument
h ood
Ġest ablish
ograph y
Ġon Click
amb da
Ġs ch
Ġmov ie
Ġse c
Ġact ivity
Ø §
Ġs ql
_ all
inc ip
Ġprovid es
Ġs ys
ack et
Ġwas n
Ġus es
ĠF unction
.g oogle
ĠRes ult
8 4
Vis ible
ag ma
el come
ĠS y
ĠC ent
AL SE
ac iÃ³n
EX T
Ġl icense
ĠL ong
Ġacc om
Ġab ility
. height
Act ive
olog ical
ol y
)) ,
.S e
Ġparam eter
pr ite
AB ILITY
.s ervice
ĠG roup
_ query
ĠI tem
in ing
Ġj ud
im s
f ix
ind er
ag ram
Ġfunction s
Ġexper i
ĠE m
Ġro t
Ġp en
.b tn
ĠA S
#if def
Ġcho ice
ĠP age
_P RO
Q U
å ı
ant ity
Â Ń
word s
Ġread only
Ġf lex
prot ected
ĠAn y
Ġchar acters
enc ed
ĠJ uly
il er
C ard
ur ance
Ġre v
.e vent
al y
1 30
Ġwon der
ĠP ort
Ġleg al
ro le
Ġt en
Ġgo es
M P
wh ite
): čĊ
)) čĊ
Ġre ference
Ġm is
ĠPro ject
ick s
> &
C ON
Ġre pl
Ġreg ular
St orage
ram ework
Ġgo al
Ġt ouch
.w idget
Ġbu ilt
d es
P art
( re
Ġw orth
h ib
g ame
9 1
19 2
ĠÐ ²
ac ion
ĠWh ite
(t ype
( `
8 1
Ġn atural
Ġin j
Ġcal cul
ĠApr il
. List
Ġassoci ated
ĉ System
~ ~
= [
Ġst orage
Ġby tes
Ġtr avel
Ġs ou
Ġpass ed
! =
as cript
. open
Ġgr id
Ġb us
Ġrec ogn
A b
Ġh on
ĠC enter
Ġpre c
b uild
7 3
HT ML
ĠS an
Ġcoun tries
a led
t oken
k t
Ġqu al
L ast
ad ow
Ġman ufact
id ad
j ango
N ext
x f
. a
Ġporn o
ĠP M
er ve
it ing
_ th
c i
= None
g s
Ġlog in
at ives
'] );Ċ
Ä ħ
Ġ ill
I A
child ren
D O
Ġlevel s
Ġ{ {
Ġlook s
Ġ" #
To String
Ġnecess ary
ĠĠĠ Ċ
c ell
En try
Ġ' #
Ġext rem
Select or
Ġplace holder
L oad
Ġre leased
O RE
En umer
ĠT V
SE T
in q
P ress
ĠDep artment
Ġprop erties
Ġres pond
S earch
a el
Ġre qu
ĠB ook
/ Ċ
( st
Ġfin ancial
ick et
_in put
Ġth reat
( in
Str ip
ì Ŀ
Ã§ Ã£o
7 1
Ġevid ence
)) ;
ĠB ro
Ġ[ ];Ċ
Ġ ou
b uf
S cript
d at
Ġr ule
# import
=" /
S erial
Ġstart ing
[ index
a e
Ġcon trib
s ession
_ new
ut able
o ber
Ġ" ./
Ġlog ger
Ġrecent ly
Ġreturn ed
č čĊ
)) )Ċ
ition s
Ġse ek
Ġcomm unic
Ġ" .
Ġuser name
E CT
D S
Ġother wise
ĠG erman
. aw
Ad apter
ix el
Ġsystem s
Ġd rop
8 3
Ġstruct ure
Ġ$ ("#
enc ies
ann ing
ĠL ink
ĠRes ponse
Ġst ri
Å ¼
ĠD B
æ Ĺ
and roid
sub mit
ot ion
9 2
( @
.t est
8 2
ĊĊĊĊ ĊĊĊĊ
] ;čĊ
Ġdirect ly
Ġ" %
r is
el ta
A IL
) {čĊ
m ine
ĠĠĠĠĠĠĠĠĠĠĠĠĠĠĠĠ ĠĠĠĠĠĠĠĠĠĠ
( k
b on
as ic
p ite
__ _
M ax
Ġerror s
ĠWh ile
Ġarg uments
Ġens ure
R ight
-b ased
We b
Ġ- =
Ġint rodu
ĠIn st
ĠW ash
ord in
j oin
D atabase
Ġgr ad
Ġus ually
IT E
Prop s
? >Ċ
ĠG o
@ Override
RE F
Ġ ip
ĠA ustral
Ġ ist
View ById
Ġser ious
Ġcustom er
.prot otype
od o
c or
Ġdo or
ĠWITH OUT
Ġpl ant
Ġbeg an
Ġdist ance
() ).
Ġch ance
Ġor d
c ame
pr agma
Ġprot ect
rag ment
ĠN ode
en ing
Ñ ĩ
Ġr oute
ĠS chool
h i
Ġne ighb
A fter
lic it
Ġcon tr
Ġpr imary
A A
.Write Line
util s
Ġb i
R ed
.L inq
. object
Ġlead ers
un ities
Ġg un
on th
ĠDe v
F ILE
Ġcom ments
_l en
ar row
am ount
R ange
s ert
Grid View
Ġup dated
ĠM o
Ġin form
oci ety
al a
A ccess
Ġh ab
Ġc reat
_ arg
ĠJan uary
ĠD ay
") čĊ
up le
d ocument
gor ith
m enu
ĠO ver
b b
.t itle
_ out
Ġle d
ur i
Ġ? ></
g l
Ġb ank
ay ment
ĉ printf
M D
Ġs ample
Ġhand s
ĠV ersion
u ario
Ġoff ers
ity Engine
Ġsh ape
Ġs leep
_p oint
Set tings
Ġa chie
Ġs old
ot a
.b ind
A m
Ġsa fe
St ore
Ġsh ared
Ġpr iv
_V AL
Ġs ens
) {
Ġrem ember
sh ared
e lement
Ġsh oot
V ert
c out
Ġen v
_l abel
Ġ >Ċ
r un
Ġsc ene
( array
de vice
_t itle
ag on
] čĊ
ab y
Ġbe came
bo olean
Ġp ark
ĠC ode
up load
rid ay
ĠSept ember
F e
Ġs en
c ing
F L
C ol
ut s
_p age
in n
Ġim plied
al ing
Ġyour self
.C ount
con f
Ġa ud
_in it
. )
Ġw rote
00 3
N G
. Error
ä »
.f or
Ġe qual
ĠRe quest
Ġser ial
Ġallow s
X X
Ġm iddle
ch or
19 5
9 4
Ã ¸
erv al
.C olumn
read ing
Ġesc ort
ĠAug ust
Ġquick ly
Ġwe ap
ĠC G
rop ri
h o
Ġc op
( struct
ĠB ig
Ġv s
Ġfre qu
. Value
Ġaction s
Ġpro per
Ġin n
Ġobject s
Ġm atrix
av ascript
Ġon es
.g roup
Ġgre en
Ġp aint
ool s
y cl
enc ode
ol t
com ment
. api
D ir
Ġun e
iz ont
.p osition
Ġdes igned
_ val
av i
ir ing
t ab
Ġl ayer
Ġview s
Ġre ve
ra el
ĠO N
r ics
16 0
n p
Ġc ore
() );čĊ
M ain
Ġexp ert
ĉĉ čĊ
_ en
Ġ/ >
ut ter
I AL
ail s
ĠK ing
*/ ĊĊ
ĠM et
_ end
add r
or a
Ġ ir
M in
Ġsur pr
Ġre pe
Ġdirect ory
P UT
- S
Ġe lection
h aps
.p re
c m
Val ues
Ġ" Ċ
c olumn
iv il
Log in
in ue
9 3
Ġbeaut iful
Ġse cret
(e vent
Ġch at
um s
Ġorig in
Ġeffect s
Ġman agement
ill a
t k
Ġset ting
ĠC our
Ġmass age
ĉ end
Ġhapp y
Ġfin ish
Ġc amera
ĠV er
ĠDem ocr
ĠH er
( Q
con s
it a
Ġ' .
{ }
ĉ C
Ġst uff
19 4
Ġ :Ċ
ĠA R
T ask
h idden
er os
IG N
at io
ĠHe alth
ol ute
Ent er
' >
ĠT witter
ĠCount y
s cribe
Ġ= >Ċ
Ġh y
f it
Ġmilit ary
Ġsa le
re quired
n on
boot strap
h old
r im
- old
ĠD own
Ġm ention
cont act
_g roup
od ay
Ġto wn
Ġsol ution
u ate
ell ing
] ->
ot es
ent al
om en
osp ital
ĠS up
_ EN
Ġsl ow
SE SSION
Ġbl ue
ag o
Ġl ives
Ġ ^
. un
in st
en ge
Ġcustom ers
Ġc ast
ud get
ï¼ ģ
ic ens
Ġdeter min
Se lected
_ pl
ue ue
Ġd ark
// ĊĊ
s i
ther n
ĠJ apan
/ w
P U
ĠE ast
ov ie
Ġp ackage
Ġn or
Ġap i
b ot
" ];Ċ
_p ost
ul ate
Ġcl ub
') );Ċ
Ġlo op
PI O
ion e
sh ot
In itial
Ġplay ed
reg ister
rou ght
_m ax
ac ement
m atch
raph ics
A ST
Ġexist ing
Ġcomple x
D A
.C h
.com mon
m o
Ġ' ../../
it o
Ġanal ysis
Ġdel iver
ĠĠĠĠĠĠĠĠĠĠĠĠĠĠĠĠ Ċ
id x
Ã ł
ong o
ĠEng lish
< !--
Ġcomput er
EN SE
Ġp as
Ġr ais
H ash
Ġm obile
Ġo wner
F IG
ĠĠĠĠĠĠĠĠĠĠĠĠĠĠĠĠĠĠĠĠĠĠĠĠĠĠĠĠĠĠĠĠ ĠĠĠĠĠĠĠĠĠĠĠĠĠĠĠĠĠĠĠ
th es
Ġat tr
w d
.t ime
aw n
Ġtreat ment
ĠA c
. View
im pl
m ore
p ass
Ġh a
.f rom
Ġle ading
FF FF
( error
. ui
at ar
ad ers
d ates
Ġz u
Ġfl ow
T arget
Ġinvol ved
Ġi o
par se
$ _
he st
. int
- item
as y
S p
Ġsh ift
N T
Ġt f
_T R
. web
C S
Ġ} )
Ġey es
12 5
10 5
_ z
' );čĊ
if orn
Ġ{ @
Ġn ice
.l ist
ĠĠĠĠ čĊ
Ġf loor
Ġred irect
ĠU K
( ['
Ġw ish
Ġcap t
leg al
ĠI O
Ġst age
. String
ĠA fr
ig en
ĠS H
De lete
ell s
Ġsol id
Ġmeet ing
Ġwork ed
Ġed itor
in y
Ð ¼
_ read
. Id
e ff
Off set
ch a
US ER
ĉĉ ĠĠĠ
ipp ed
Ġd ict
ĠR un
.h pp
Ġan g
x ml
im ple
Ġmed ical
_t oken
con nect
Ġh our
Ġcont roller
_m essage
U ID
G r
and ed
_C H
Ġbook s
Ġspe ak
am ing
Ġm ount
Rec ord
ĉ struct
.W eb
ond on
Ġ// Ċ
Ġf elt
.A uto
id ge
_p os
P R
Ġmod ern
C ollection
_m sg
C D
ĠL o
Ġsecond s
ib ly
.e quals
Ġintern ational
# pragma
oo th
W riter
i ate
Ġce le
ĠB it
iv o
iv ery
r d
HE CK
Ġc ache
.c ount
Ġro ll
.Re ad
10 8
RE D
Ġset up
izont al
model s
arg v
Ġconsider ed
=" ../
set tings
ĠR el
Ġgrow th
Ġm ix
ĠWash ington
Ġpl t
ĠI M
á º
Ġturn ed
ĠDate Time
ĠW ed
( url
Ġ" -
Ġlet ter
As ync
ĠĠĠĠĠĠĠĠĠĠĠĠĠĠĠĠ ĠĠĠĠĠĠĠĠĠĠĠĠ
ĠOct ober
_l ine
Ġatt ention
Ġcol lect
ĠH ash
Ġim ag
T ree
Ġsit uation
et te
_n o
IV E
Ġv on
.t arget
Ġknow ledge
Ġdr ive
.p ost
Ġb lood
Ġc it
pr imary
Ġconfig uration
te e
Ġph oto
is ode
Tr ace
Ġg ave
Ġsh ot
ĠA ir
Ġm other
pr ice
Ġmor ning
)) {Ċ
- x
Ġtr ade
Ġdes c
Ġ&& Ċ
Ġparent s
A pi
å Ī
t ed
w er
Ġ æ
Ġs y
ĠK e
Par ser
å ħ
anc y
Ġpie ce
iforn ia
to String
r an
id ing
PT ION
com es
/ lic
.c lient
E l
L ong
Ġprofession al
ru pt
v a
Ġcomplet ely
Ġpract ice
00 2
Ġse lection
R em
in i
Ġc am
RE E
Ġsit es
p a
AT US
Ñģ ÑĤ
arr ant
* (
_ KEY
ĠB utton
ĠF riday
se qu
Ġre ader
Ġm essages
è ¯
Ġbu f
K e
Ġn ov
H P
M sg
al ign
ar ily
Ġ' ,
_w ith
Ġd as
Ġhe ard
at omic
ri al
) [
Ġdis e
@ end
Ġg old
Ġf air
Ġsa les
. Button
str ict
s ave
Ġme asure
Ġ" +
ec ause
View Controller
ĠT able
.p aram
Ġdec ided
(( (
IN FO
Ġopport unity
T e
IC ENSE
cc ording
k i
ĠU N
Ġcont ain
Ġman ager
Ġp ain
ĠF ire
rom e
Ġpl ans
F ound
l ay
ĠDec ember
Ġinfl u
Ã º
ren ch
ĠĠĠĠĠĠĠĠĠĠĠĠĠĠĠĠĠĠĠĠĠĠĠĠĠĠĠĠĠĠĠĠ Ġ
az ing
b rief
c all
wo od
Ġload ed
Ġgr and
/ f
im p
_ U
12 7
ST R
âĢ ¢
Ġcred it
.C olor
or ge
QUE ST
Ġdiffer ence
ĠP C
w args
Ġp ub
und ay
Ġf ra
.m ax
Ġtri ed
ann els
s end
Ġreport s
Ġad ult
ä º
Ġcons ist
ĠSt reet
ĠPro gram
S QL
M atrix
ounc il
- A
ĉ w
Ġwho se
Ġrel ig
ĠS ex
Ġg ives
n one
.m essage
( G
.aw t
- right
ĠNov ember
ell ig
3 60
ut ive
Ä ĥ
over n
Ġeas ily
Ġide as
10 4
ĠÐ ½
/c ss
ly ing
el le
C an
_c olor
Ð¾Ð ²
Ġp air
ng th
Ġs plit
14 0
d rop
art y
on a
Ġcap ital
Ġhe ar
Ġex ists
ĉ log
em o
R un
o i
Ġpar ser
ĠM ethod
Ġeduc ation
[ k
Ġlib rary
> ";Ċ
_ UN
ĉ std
od ed
Ġcall s
h ere
R el
Ġbr and
back ground
g a
_add ress
_param s
C ategory
10 3
ĠInd ia
_e vent
Ġ ing
R ender
.c l
ump y
Ġp et
F C
ĠA nt
Ex t
Ġchar ge
en ed
gr ad
E O
Ġdep end
Ġ .ĊĊ
fr ame
Ġd f
Ġh uge
ĠP ART
ed s
; ;
ĠA M
Ġbas ic
ĠL et
lic h
Ġar m
Ġst ar
Ġf ederal
W ork
Ġcar ry
ĠIs rael
( obj
={ {
Ġs aved
Ġs yn
Ġconst ant
V ENT
Ġpos itive
Ġcon duct
Ġsk in
Ġear lier
Ġl ayout
ĠI P
O UR
Ġt im
styles heet
_ cl
ĠC ard
++ ){Ċ
Ġtem per
ĠDav id
ĉ try
.d art
Ġwant s
Ġp icture
Ġv ideos
ĠCom m
is ions
_M AX
M apping
- content
ĠE ar
- de
Ġpre m
br uary
Ġcom ponents
Ġthrough out
Ġp ull
Ġp ages
ent e
res pond
Ġg as
cript or
Ġed ge
Ġb ound
A CT
**** **
Ġcre ating
ĠC H
Ġnull ptr
B r
+ '
.c o
> ::
Ġle arning
.L ength
_S H
Ġpat ients
A IN
Ġk ids
Ġcom fort
Ġsh own
ug ins
ĠB ack
ell a
_C L
Ġl at
Ġdis patch
Ġclass es
. at
.b egin
Ġsuccess ful
b an
Ġobt ain
ĠS l
Ġl ack
iter ator
Th read
(s ize
Ġn one
.h as
_ X
s ort
n ap
p et
b in
7 00
ĠCan ada
The y
Ġd ans
ĠM at
< td
Ġh air
Ġ' ',Ċ
Ġc u
Ġlaw s
let ed
p ed
Ġp ow
Ġk new
_C OM
_ ,
ĠM ag
id ents
( req
Ġ ),
- center
19 0
Ġw ide
ĠA uthor
st ants
Ġjob s
Ġm ath
et imes
Bo olean
Ġs cope
_ is
Ġme as
Ġkey s
el ay
Ġexact ly
'=> '
ĠP aul
m as
ĉ print
(l en
f d
Ġ) ;
. Event
q li
ir it
ield s
om an
ĠT op
Ġv ote
Ġm ask
Ġthem e
- Ċ
Ġpro ps
Ġf ine
Ġwrit er
_ offset
c ar
Ġal tern
Ġc opyright
Ġdest roy
pp er
Ġgener ate
pp ed
âĢĻ d
ĠĠĠĠĠĠ Ċ
m ake
ĠSh ow
Ġb rowser
Ġfavor ite
Ġcare er
Ġhappen ed
( char
Ġrecomm end
Ġl iter
.f ilter
gr ade
ĠÂ £
Ph one
om s
Ġn amed
- label
ip o
ĠO ther
Ġp anel
Ġro ck
S cale
ĉ assert
Ð ´
Ġtr ust
fr ont
Ġdem on
A r
N et
Ġecon omic
foot er
Ġr ace
(n ode
ĠO ption
s plit
Ġphys ical
if est
Ġrem oved
. http
)) ,Ċ
Ġlook ed
' ;
d ing
g est
atur day
/lic enses
Pr ice
Ġd ro
Ġto wards
Ġun s
ĠC L
ĉ static
Ġ rows
Ġdef ine
.re place
Ġf ather
ĠDes ign
ass ign
m ut
De vice
D id
') )Ċ
omet ry
ay load
Ġh istor
ĠP aram
ĠBo olean
Ġn ature
Ġj s
Ġn ation
i h
Ġdis cover
se m
Hand le
ĉ r
ĠTe chn
Ġw all
{ $
@ property
Ġ" ../
Ġex am
.d raw
opp ing
Ġnear ly
Ġco ol
Ġinde pend
RE S
Ġhand ler
ĠMon day
Ġs un
St yles
ous ly
Ġ ĉ
v est
D isplay
( y
atic ally
Ġpred ict
y ing
Ġsom etimes
" ]Ċ
Ġdr ink
Ġb ul
ific ations
. insert
.re g
Ġtest s
Al ignment
Ġal leg
Ġat tribute
ĠN ote
Ġmy self
art s
N ow
Ġinterest ing
li ents
Ġpop ulation
ĠCal ifornia
" I
å ¹
Ġgre ater
ues day
Ġth ous
Ġcost s
Ġla unch
\ Http
k er
b and
ĠPl ay
Ġb and
.sh ape
es ome
art icle
.r f
Ġw er
Ã¡ s
em bers
us r
B A
ic an
et t
valid ate
ult i
Ġimmedi ately
z er
Ġfig ure
o es
ell er
irc le
ĠS ign
.d b
Ġr ank
By tes
Ġproject s
_re c
UL AR
A PI
ĠL ine
P ort
Ġp oll
Ġg iving
id ence
-- Ċ
Ġpl ot
ic ial
Ġw arrant
IT ION
ĠD ouble
Ġbill ion
gorith m
Ġequ ipment
D ATE
Ġ@ "
E E
Ġp le
i ation
Ġhead ers
Ġpro ced
.Component Model
ĠOb ama
Ġp a
ĠB est
im ately
.get String
. \
mp loy
Ġr aw
_b lock
und red
" },Ċ
1 12
.Group Layout
Ġb rought
NS String
th row
cre ated
.N ew
_ view
C P
ep s
O p
Ġgr atis
Ġ' "
Ġinter view
"" "Ċ
Ġpart ial
Ġa ria
b ing
A uthor
Bo ok
ĠP at
um an
Us ers
pl us
19 3
ĠD irect
ven ue
al pha
UC CESS
ĠC all
Ġ );čĊ
im ated
Ġrem ain
Ġant i
ĠL ondon
Ġsaf ety
PO SE
o les
cont roller
By te
ĠCour t
ĠPh il
ĠAss oci
en a
å Ĳ
_ST R
co in
resh old
Ġb atch
_C lick
entic ation
> ';Ċ
ent y
Ġbegin ning
Ġz ero
ĠCon vert
Ġt err
Ġp aid
Ġincre ased
c atch
-s ize
11 5
act ivity
e quals
Ġque ue
Ġ" '
ĠIntern ational
Ġf Ã¼r
urs day
Ġsc ient
all ow
ax is
Ġapp ropri
ed ge
Ġid x
S uccess
ent ifier
: \
x is
Ġmax imum
ark s
Ġb irth
( index
Ġmay be
.p y
file s
Ġlim ited
_ check
lo ok
pl ies
Ġmov ement
'] .
Ġbro ad
ĠB E
ĠUn ityEngine
.c pp
ĠE very
Ad min
Ġf ans
p ared
Ċ ĠĠĠĠĊ
Ġfore ign
Ġp an
Ġt our
ĠOr der
Ġmov ing
Ġa uf
C all
c b
Å Ł
vent ory
ĠS ql
Ġful ly
Click Listener
W ORD
Ġannounc ed
) čĊčĊ
Ġagre ed
ri e
Ġe arn
_l ink
. array
(t ext
Ġmaterial s
, p
ff ff
v g
ĠÂ ©
Ġun less
aj ax
LO G
Ġsex ual
Ġ\ "
- time
Ġco ach
Ġsupport ed
Ġphot os
if orm
.C reate
) ]
ri er
Ġd ialog
av er
ig e
) +
_id x
: [
_m in
ĠC ong
Ġpress ure
Ġteam s
S ign
b egin
ri an
NE SS
L S
Ġimpro ve
ĠS unday
Ġdef inition
ig er
roll ers
Ġthink ing
T emplate
- F
Ġem erg
pl ates
ĠUS A
.set State
ĠAl so
re v
Ġen able
ĠC O
PE CT
Ġcon cept
) -
ĠâĢ ¢
Ġset s
Ġmean ing
em on
ĠCon s
c mp
ed er
ann ed
icens ed
ĠS uper
Ġd aily
Ġmult i
_ u
Ġchall eng
_m ode
ĠP romise
Ġstr ict
j o
int on
( list
On ly
> {
Ġveh icle
í ķ
ĠPl ayer
10 6
ĠD el
Ġp ool
. url
nes day
();čĊ čĊ
9 00
Ġ" );Ċ
L ocal
. ");Ċ
Ġorgan ization
re nder
ĠApp lication
Ġsum mer
ex pected
N A
Ġr ap
_ obj
Ġsur face
ĠP UR
Ġ}, ĊĊ
Ġvariable s
(m essage
Ġop in
.b ack
Ð° Ð½
Ġwork ers
v m
C o
ught er
Ġm aster
Ġ" ",
Ġst ories
. User
Ġcele br
ines e
B S
ĠCom mand
ash board
Ġo g
k g
. image
.st yle
Ġstep s
ĠB en
( args
40 4
ĠP erson
, y
Ġofficial s
| Ċ
Ġsk ills
v c
Ġbuild er
Ġg ar
A ccount
ĠA uth
ç Ķ
'] )Ċ
ĠA T
n n
. Int
SS ERT
Ġeffect ive
LE TE
Ġto ols
AR D
Ġdig ital
19 1
D ouble
ĠF ind
R C
Ġin line
/ r
AR AM
AS K
Ġint ent
a ight
_add r
Ġrequest s
.f irst
Ġde bug
Ġsp ent
() ));Ċ
Å Ľ
Ġpr incip
Log ger
clud es
. use
Ġsur v
med ia
ĠFe bruary
ĠM ac
Ġmiss ing
Ġw ife
Ġtalk ing
ĠM ake
Ġc art
Ġloc ated
E nc
- a
ch ron
Ġc ards
Ġgu y
Ġp ers
ĠY es
ate ver
ĠA ng
ol ar
ĠE ven
Ġacc ur
ĠP ower
ĠG old
c lear
Pro cess
Ġrec ords
Ġk illed
.c lear
ĠWARRANT IES
Ġpur pose
pan el
J ECT
ÃŃ a
Ġex erc
W S
/ L
. exports
Ġ__ _
Ġs in
S ervlet
Ġd Ã©
.de lete
ro ke
S l
ug h
ear s
Ġpoint er
Ġh op
all ery
Ġo bs
co very
ĉ char
ĉĉĉĉ ĉĉĉĉĉĉ
ĉ def
oc ity
itch en
ul ations
ĠF IT
Ġ ).
straint s
vent ion
Ġrequ ires
ĠO per
M E
OUN T
al let
Ġn orm
I RE
ex as
Ġprogram s
Ġwe ak
' .$
u ing
ĉ ĠĠĠĠĠĠĠ
Ġm il
Ġf irm
init ely
_VAL UE
ap se
atis f
Ġdem and
_m od
Ġdescri bed
Ġpl aces
V ID
Ġal one
Ġex port
Ġv ec
ĠM ax
Ġactiv ities
ict ures
g ener
Ġm a
Ĥ ¬
Ġexpress ion
C allback
_ content
ĠM ost
Ġtest ing
E C
CH ANT
Ġad just
.Th reading
( ctx
Ġag ree
ig hest
Ġu i
ĠL aw
. Y
> <?
Ġp od
-l g
âĢĿ ĊĊ
Ġdes cribe
ĠEurope an
- sh
ĠPUR POSE
OR Y
Ġcon vers
ĠI lluminate
ĠA v
( ch
? "
ch en
im a
D ocument
Ġoper ations
w in
ĉf unction
. Image
Ġsc en
/ h
ĠS C
Ġexp lo
: %
/** čĊ
N AME
æ Ī
( var
Ġdirect or
ON G
Ġy ield
Ġfe et
ĠS earch
ĠI l
Ġrest aur
du c
Ġint eger
10 7
Ġ' ';Ċ
Ġhigh ly
check ed
ĠPART IC
ER CHANT
ï¼ ī
Ġopt im
Q ueue
ĠL I
it ation
Ġtrans port
iss ion
f ill
us ion
ĠĠĠĠĠĠĠĠĠĠĠĠĠĠĠĠ ĠĠĠĠĠĠĠĠĠĠĠĠĠĠ
ĉ bool
- th
u pt
Ġess ential
ant ed
Ġbenef its
ĉ S
' ;čĊ
ik i
Ġgirl s
ic ed
b uffer
] +
Ġso cket
Ġpr ices
ĠF re
Ġs at
Ġw ood
Menu Item
AR G
ĠAd min
OW N
d k
Ġres et
Ġfor ms
ĠÐ ¸
æ ĸ
ĠT uesday
10 9
ĠInitial ized
_tr ain
or ary
ateg or
Ġd t
T otal
con struct
il ies
Ġgu ys
Ðµ ÑĢ
Ġin struction
0 10
y led
Ġintern et
et adata
ad y
f aces
je ction
ĠJ ack
Ġre ct
[ -
ĠL eg
Ġdev ices
O C
Ġ* čĊ
or ation
ert ain
Ġgu ard
ost ream
Ġen um
.l ayout
Ġ" ;Ċ
vo ke
ĠO k
H ome
( tr
ET H
Ġdel ay
Ġpurch ase
d c
Ġare n
_on ce
ĉĉĉĉ Ċ
r or
d raw
.r un
(m odel
Time out
li k
ĠAr g
. en
Ġf ish
c py
_f e
ERCHANT ABILITY
( X
_ output
? ?
Ġj o
and ard
Ġd oll
error s
_b ase
ĠPARTIC ULAR
Ġle ader
Ġcomp ar
Ġd oub
ĠV is
Stack Trace
- C
ĠSt ud
stit ute
M ore
ĠD escription
W ARE
ad s
ĠÐ º
b ind
= self
em ploy
[ n
. all
- B
& &
al m
Ġcult ure
h ouse
Ġsu ffer
Ġ' %
Ġstr aight
ĠSt ar
ud o
Ġd ed
ĠC OM
Ġconf irm
ĠG ood
.s c
________ ________
D R
Config uration
Date Time
Ġad vert
Ġcould n
as ync
st ack
') čĊ
K it
Ġh ous
Ġme chan
r ate
20 4
Ġa udio
ĉc out
co res
Ġsp ot
Ġincre asing
Ġ ##
)) )
point s
Ġcomp ared
l ig
Ġbeh avior
ĠB Y
ĠAt t
c raft
head ers
et e
end region
Ġd etail
U LE
ĠCom mon
ĉ protected
st on
ĠFIT NESS
Ġf resh
"> ĊĊ
.ex ample
ber g
Ġmov ed
ĉ e
ĠS aturday
Ġpay load
Ä ĩ
) :ĊĊ
Ġbe y
ur er
< script
Ġs ymbol
Ġass um
Ġp ul
E ffect
Ġh undred
To ol
ak ed
con nection
Ġvo ice
Ġp d
Ġtrans action
Ġlink s
E rr
ĠInd ian
T C
atal og
n i
s ign
<< "
j i
y a
Ġdemon str
ul ated
. St
Ġinst it
Ġbo ost
Ġcell s
ol ic
.P ro
: </
Event Listener
ify ing
ĠD i
or row
.ex ecute
Ġcol lege
Y our
Ġlarg est
.d is
Ġqu i
Ġindividual s
_b uffer
Ġn g
S A
ĠCont rol
Ġs ing
Ġsu it
ĠĠĠĠ ĉ
S G
Ġj ump
Ġsm art
om a
ĠEx p
Ġ' -
Ġass ist
Ġsuccess fully
s ys
ĠC re
_ ref
ĠTh ursday
Ġb ur
ĠÐ ´
Ġbey ond
Ġn odes
D etails
in ct
ĠJ ames
Ġa ffect
ex ception
Ġtype of
( čĊ
- se
Ġf etch
` ,
Ġcrush er
} .
ĠB O
Sh ow
Ġr ates
Ġb on
- icon
ĠMed ia
RE SS
ĠVal id
Ð¾Ð »
Ġf uck
ack s
Ġstud ies
M e
Ġown ers
} else
Ġgrow ing
Var iable
ĠB el
.r andom
v ement
on ym
( F
ĠF ALSE
Ġtor ch
( row
ig o
struct ure
12 1
Ġcertain ly
D ep
ĠG reen
quest ion
Ġadd ing
ĠDe velop
_ def
Ġm ach
= %
ĉĉ Ġ
cond s
Pro ject
Ġre ject
Ġ Î
Ġpo or
Ġaw are
11 4
ĠB uild
ĠBrit ish
ĠN E
Ġnum er
re es
cl aim
Ġm ock
Ġo m
Ġs cre
OL D
. pl
el er
Ġcor respond
_ HE
Ġb inary
11 6
_ order
ĠS QL
Ġadv ant
Ġpre v
. [
.assert Equal
pl ier
ar p
Ġclos ed
Ġenc our
ĠQ String
a ud
Ġdevelop ed
Ġper mission
.de bug
oper ator
Ġ' Ċ
Ġs ym
at ively
Ã© e
-c olor
ĠG ET
k y
Ġal though
_re quest
_e lement
........ ........
_D ATA
Ġam azing
Ġs b
ĠDef ault
Event s
Ġfail ure
ac le
Prop erties
Ġd ream
Ġdist r
Ġa u
Ġgener ated
æ ķ
ĠTe am
U SE
Ġin come
Ġey e
_n ot
" ],
_ form
S upport
ord ers
.P rint
v ille
ĠWed nesday
ol ver
Ġopp os
is ation
ol a
C lose
< p
_w idth
In valid
x b
Ġstr ugg
_ action
Ġt xt
ĠP ath
al ar
ĠM ERCHANTABILITY
s ervice
ĠMich ael
able View
De bug
ok es
S he
Ġgu ess
ĠJ ava
_P ATH
Ġparticular ly
ĠI I
Ġd omain
å¹ ´
Ġredu ce
- left
re al
Ġappe ars
Ġcom o
ĠUn it
ĠG overn
al i
alle l
ĠJ ew
_ I
Ġc os
.c olor
ĠG lobal
Ġte le
b en
_ trans
Ġreason s
Ġem b
ens ity
l ines
om in
S creen
Ð° ÑĤ
pect s
cl ip
fo o
re nt
Ġa f
Ġd anger
il ing
N ames
O ur
Ġdistrib ution
Wh ile
S L
W rite
Ġg oto
Ġcolor s
Ġpower ful
k in
Ġdep th
erc ial
ĠCong ress
ĠMark et
D b
u nder
ĠL ast
Ã Ł
g reg
Ġpost s
_ URL
ot os
D on
Ġm icro
Ġar rest
Ð ¿
Ġ( @
ĠH ot
ĠInd ex
; &
# !
ĠN or
ĠC ap
- (
Ġinterest ed
pe ar
Ġre nt
Ġal bum
ol icy
.l ang
. trans
. format
Ġ{ čĊčĊ
ph ere
Ġax is
ĠB usiness
ersist ence
ur r
Ġmin imum
end or
ĠS D
11 3
ĠIntern et
å ¤
Ex p
iver se
M M
Ġob vious
Ġbas is
Ġsc ience
Ġb udget
iz ations
P A
Ġfl ags
pre t
LO CK
Ġvari ety
Ġtr uth
d t
Ġg one
Ġb attle
< std
ĠS il
r f
ud a
Ġer ot
ĠC am
Ġst ation
Ġ' </
chem e
ĠS un
Ġfin ished
Ġsh op
ĠK ore
Ġe ight
_RE G
N D
> ,
"> <?
(n um
ĉ inline
Trans action
. On
Ġm ail
re y
result s
Ġn av
IM IT
_id s
M ake
å Ĭ
Mod al
ĠLO G
ĠS ur
Ġinstance of
Ġover all
ĠIn formation
Ġcon struction
_F ILE
b ut
Ġmed ic
Ġd uration
it ness
ag ent
A V
Ġse ven
ol f
Ġ} }Ċ
" ],Ċ
17 0
12 2
Ġcall ing
Ġan s
th rows
or izontal
Ġuse State
.f l
ĠSt atus
ĠOn line
R R
ĠR ich
ĠH ill
Ġbr ain
Ġfollow ed
24 0
em ic
Ġsl ight
Ġins urance
.A rray
Ġab stract
ĠS um
red irect
own er
( msg
ĠCl inton
N on
ĉ ex
Ġv olume
ĠEvent Args
- L
ĠD im
ĠM art
Ġc ursor
Ġimplement ation
urre d
Ġlarg er
);ĊĊ Ċ
' +
. transform
Ġup load
ĠĠĠĠĠĠĠĠĠĠĠĠĠĠĠĠĠĠĠĠĠĠĠĠĠĠĠĠĠĠĠĠ ĠĠĠĠĠĠĠĠĠĠĠĠĠĠĠĠĠĠĠĠĠĠĠ
D raw
n el
ĉf loat
q rt
ĠN etwork
Ġt it
A xis
. android
Ġcomplet ed
Ġm ur
Ġcolumn s
x c
Ġsup ply
im inal
Ġs pr
================================ ================================
Ġun its
( u
m i
re place
[ key
à ¹
ant ic
Ġpay ment
, B
ĠApp le
g in
Re quired
# +
land s
Ġs qu
Ġfact or
de c
Ġstre ngth
Ġbo y
Ġb alance
Ġs ources
s creen
-t op
ĠAm azon
Ġh idden
Ðµ ÑĤ
_ client
Ġe at
.d isplay
ĠÂ »
Ġtr igger
an ager
Ġt ro
Ġclaim s
f ord
ĠCom pany
Ġg ift
, :
_ app
h andle
Ġprodu ce
/ lib
5 12
Ġ- *
ĉ set
'] ;
ar c
and er
ĠEng ine
Ġat tributes
t ask
< =
( N
Ġw arm
wh ich
ĠF ore
agn ost
m ys
Ġt al
ĠS al
g i
ĠP rint
ĠTR UE
ĠÐ ¾
. UI
Ġfl ash
rop erty
. location
ĠM ill
b i
con tr
.re quest
ĠS am
Ġneg ative
k it
Ġset t
.print StackTrace
ab e
ĉ i
Ġb urn
Ġs ociety
C ache
ĠSec urity
.model s
ĠWARRANT Y
_ up
ce ive
Ġc lients
.T r
Ġprovid ing
Ġr out
m aterial
Ġ|| Ċ
ĠS er
ĠOff ice
FT WARE
Ġ' $
Ġf oc
Ġexc ell
Ġc at
n ormal
Ġdeter mine
ĉ uint
P ane
Ġemploy ees
ĠT exas
Ġtr aff
ĠRe port
ant a
ĠBo x
Ġd jango
Ġpart ner
E B
L INE
Ġfeel ing
Ġc ivil
(f loat
S ql
Ġwould n
.in it
. left
- v
_ level
' }
A F
Ġlo ading
ĠOn ly
Ġcook ies
ĠG l
C O
Ġstrateg y
(' ./
Ġsh ip
pos es
Ġsign al
Ġal pha
.p op
R adius
Ġre place
_D IR
count er
bserv able
el a
We ight
h ash
bo se
f x
ĠE mail
Ġre fer
local host
_ RO
iqu es
St ep
Ġa head
( View
ĠS ervices
ĠJ son
ess or
Ġp un
Ġappropri ate
ak ers
os en
pos ing
Ġag ent
f c
Ġtrans fer
Ġin valid
ĠRes earch
Vert ex
Ġg ay
Ġj ournal
[ x
Ġ" ",Ċ
ĠW ell
.T asks
S pec
Ġo l
Ġsp end
ĠAustral ia
M atch
.j unit
ĠĠĠĠĠĠĠĠĠĠĠĠĠĠĠĠĠĠĠĠĠĠĠĠĠĠĠĠĠĠĠĠ ĠĠĠĠĠ
ĠM AX
iz able
clus ive
_ valid
Ġqu arter
y an
00 5
ĠEd it
ard en
= new
Ġfr ag
B it
z i
ain e
u dd
. Object
de bug
Ġc ash
_ IM
Ġe en
Ġcomm ercial
ĠV ideo
lo ader
Ġf ixed
Ġapplic ations
Ġ_ ,
ĠRuss ia
it ect
_ (
ĠB lock
Ġs an
ĠT om
Ġper haps
Ġs ig
lev ant
Ġcor por
at aset
ron ic
x e
Ġ eth
S ome
p op
_O K
Ġt end
. Res
_ and
Ġreview s
Ġw ild
11 7
Ġdeg ree
. O
.object s
_ args
n il
Ġdis abled
P arent
Ġnot es
Ġ" "Ċ
( state
istr ict
Ġlog ging
.I O
ĠM al
D M
Ġx ml
ĠRob ert
el en
l ayout
f ol
'] ))
, b
ĠJ er
f ilename
Ġf an
ĠC ustom
=" "
ĠD ie
B undle
.util s
Ġtri p
M B
Ġso ft
_M ODE
Ġapplic able
Ġup per
ER VER
_ al
_LO G
H ere
w p
ĠS erver
ĠC lient
Ġch em
Sc roll
Ġh ighest
ĠSe lect
Ġ" @
ĠWh y
S ec
he el
Oper ation
Ġconn ected
ir med
Ġcit iz
ĠC he
Ġfor ces
Ġw ww
R oot
AN CE
Man y
ic ip
rg an
2 20
ĠT or
ĠP ress
ĠM or
- line
u led
> \
Ġth us
ĠReg ister
h ol
ĠCh inese
Ġpost ed
Ġm agn
ab ilities
Ġdise ase
Ġrem ains
ĠPro f
- form
Ġc in
org an
ic ate
Ġst ress
] *
Ġ ----------------------------------------------------------------
_ context
or ry
Ġd ied
m at
Ġstart s
.M essage
Ġrun s
Ġgu ide
Ġwarrant y
ential s
d ict
ĠS ize
ul er
Ġrespons ible
_SE T
Ġcont aining
ĠPr ice
| |
3 50
F S
Ġem p
_b utton
( uint
Ġsu ff
p th
Ġdef initely
put e
Ġmarket ing
ĠW H
ĠS ie
+ =
OL OR
Ġcons ult
Ġs igned
Ġse quence
le e
Ġrequire ments
h y
Ex press
M T
se y
Ġ ult
å ®
ellig ence
Ġanal y
Ġd ress
eng ine
ĠG reat
ĠAnd roid
ĠA lex
m ode
D ictionary
.D ate
ä ½
V ICE
Ġfam ilies
ĠRuss ian
ĠT imes
.c all
$ (
Pro file
Ġf older
ch es
Ġleg is
_ row
un es
Ù Ħ
Ġ} ).
Ass ert
ag en
ĠH and
I ter
Ġbig gest
ore ach
Ġpol ic
Ġper missions
Ġshow ed
ĠE lement
Ġtop ic
âĢĶ âĢĶ
ro ad
ĠB ank
rec ord
Ġpart ners
ĠR ef
ess ions
Ġass ess
U ST
ĠPart y
pro du
L C
Ġ ul
. form
h ide
c opy
UT F
ĠSO FTWARE
čĊčĊ čĊ
ĠL in
un a
ug ar
Ġadmin istration
Ġopen ing
Ġsc an
Ġcontin ued
com ponent
.s p
Ġhapp ens
um my
ĠP R
.F ile
ĠDown load
Lo ading
d i
Ġwait ing
_A DD
T ab
.query Selector
Ġecon omy
ĠF rench
t xt
Ġf ant
_ ;Ċ
H older
S H
00 4
Ġn umpy
Ġst reet
Ġm ale
\ Model
ang ing
33 3
ĠB ill
Ġprevious ly
B I
ĠSec ret
Ġm ist
ĠF ield
up s
ĠPro cess
Ġke pt
ĠO T
Ġtrad itional
. i
am in
Ġhelp s
An y
orig in
ilt ers
j u
d esc
ĠA ccount
Ġ) čĊ
k top
ol ly
Ġf s
Ġ ê
Ġ ut
Ġcent ral
(t est
.A n
Ġs atisf
G R
ĠF ull
Ġhe at
ib er
Ġon to
m os
S chema
Ġfact ory
" .$
aw s
St atement
(t arget
ĉ new
.b e
Ġg uest
Ġm al
AR Y
Ġre ached
Ġm ouse
Ġchall enge
ĉd ouble
ĠT em
Ġt error
Ġex tract
_T O
Ġsepar ate
Ġm ir
h elp
Ġcap acity
ĠProp erty
k an
_c reate
ĠL ight
.p arent
Ġunderstand ing
Ġeas ier
Ġ| =
Ġen h
Ġf at
Ġprot est
am m
_ AT
- of
il s
ĠO h
Ġps ych
Ġ$ .
ind s
Ġrel ative
sh op
sh ort
ĠS and
2 10
uest ion
Ġf ear
/ ĊĊ
. context
Ġschool s
Ġser ve
z one
_d b
Ġmajor ity
ex ample
Ġl ang
ĉ ĠĠ
Reg ister
end o
Ġprocess ing
_t emplate
- user
Ġe g
C OM
ĠBl ue
i ro
Ġrem ote
ĠI T
#! /
Ġred istrib
12 4
ra z
ĠS ince
ĠT ur
13 5
Back ground
== =
Ġref lect
Ġpro s
c md
Ġwh om
Com pat
ĠA re
Id entifier
ĠTh om
_ port
g u
Ġmon itor
r m
Ġpat ient
ver ter
Ġg ain
- ui
In st
Ġd ies
11 8
A rea
_f ilter
Ġgr at
Ġreal ity
ord inate
ol ved
Cont act
Ġcompl iance
_ or
ĠV ar
d l
Ġapp end
G ER
(m ax
.re nder
Ġd ynamic
ordin ates
_ options
_c olumn
Ġb atter
s pace
L a
ĠS ource
/b in
Ġd os
ĠBo ard
ĠTh read
ĠA L
( config
14 4
ĠM er
Ġm iles
_ header
ETH OD
iz z
Ġbenef it
Ġinteg r
(c urrent
ul o
. default
ĠD iv
Ġt on
o th
erv ation
ed om
Ġb aby
ce ived
.t op
rior ity
ĠL ocal
ri age
Ġattack s
Ġh ospital
16 8
Ġfem ale
ĠLog in
ĠFl or
Ġch ain
ash ion
Text ure
S ave
Ġf arm
.cont ains
.T est
Ġknow s
Ġgener ally
ip eline
Ġme ant
enc ia
Ġn icht
Ġcont ents
P M
ched ule
( line
C G
j ob
ĠRe al
u er
f irm
Ġ Ø
et ro
" `Ċ
Ġspe ech
Ġth r
fore ach
Ġw arn
ĉ l
Ġhe avy
< li
N e
Ġinvestig ation
M ath
- title
Ġch urch
Ġdes pite
ch ain
Ġwh atever
ar ian
f n
Ġm eta
} )ĊĊ
U FF
Ġregard ing
_S UCCESS
m es
ĠInt ent
Ġres olve
pos s
ir a
for ce
o ice
Ã ¢
Ġp m
Ġup dates
A rr
Ġ Ñ
test ing
Ġto ward
nt ax
ë ĭ
Ġlist en
Ġgo als
Instance State
D r
Ġr are
Ġtr ail
Ke ys
C al
C ar
ĠPe ople
ĉ local
class es
Re ference
.for Each
em b
act iv
Ġpr im
red ict
Ġr ad
æķ °
.B ack
Ġsp read
Ġc lock
Ġv ir
ed itor
Ġeffort s
Ġbr anch
Ġind ust
Ġmot or
Ġam b
Ġdat etime
Ġren cont
ĠChrist ian
ĠAmeric ans
f ull
Ġf mt
.m ain
Ġca used
_ update
ĠCont ent
AT CH
Ġb ath
ĠE ach
Ġr adio
ach ment
uz z
Sub mit
Ġre strict
ab in
ĠL oad
Ġext ension
Ġess ay
Ġh at
avi our
to Be
": [
Ġoffer ed
Ġv ill
(d ouble
1 19
æĹ ¥
b c
_f ree
ĠM iss
ĠB er
Ġ è
ĠL ike
Ġhelp ed
.get Name
_ AL
Ġsp irit
ĠAp ache
w s
Ġthere fore
( params
_ img
Ġpe ace
Ġinc or
ĠEX PECT
Ġmin or
ip es
ĉ data
select or
c ity
tr ie
.b ase
_f rame
Ġopen ed
/ json
L Y
n u
.D e
t f
m argin
.P arse
Ġp i
Ġe q
b d
Field s
ĠT ree
Ġb an
ist an
Ċ ĠĠĠĠĠĠĠĠĊ
ĉg l
Ġprodu ced
s ystem
M ark
_h ash
Ġb g
Ġconst it
ĠLe ague
Ġmiss ion
_ format
([ Ċ
clus ion
! "
Ð ·
b reak
ĉs witch
Ġth er
Trans form
Ġfoot ball
- link
r oute
. auth
Ġb ag
ov ers
Ġen abled
Ġr ac
( I
C R
anc ing
Ġman aged
_ q
NG TH
Ġm ac
ĠA uto
ament e
Ġ' ',
.App end
Ġp in
. item
ack ing
Ġocc as
p erson
Ġt i
.Re g
Ġh aven
Ġg lass
Ġ" </
ĠSim ple
P rint
Ġsur round
N O
ãĢĤ Ċ
ĠĠĠĠĠĠĠĠ čĊ
ĠMan y
Ġ" _
Ġweek end
Ġsom ew
.param s
sm all
AT ED
Ġpl ugin
field s
ĠInitial ize
o on
at ile
y e
Ġv ous
L AG
Ġold er
Ġg am
Ġextrem ely
Ġh et
en um
ĠS ET
x ff
Ġt imer
/ index
Ġcrit ical
Row s
_arg ument
Ġex ecute
Ġshow ing
.x ml
- list
R ole
typ ename
_m ethod
th at
ch er
Ġâ Ĩ
X T
Ġthous ands
ĉ n
Ġres p
_pr ice
ol ut
A g
ĠT wo
Ġbe comes
Ġh us
.U se
th eme
ur b
Ġ/* Ċ
erial ize
AR N
Ġlo se
L ower
Ġv el
Ġdef ense
cond ition
Ġb es
Ġd ry
Ġsc roll
.S how
I EL
Ð¾ ÑĢ
ĠR est
Wh ere
ood s
ĠJ es
Ġw ire
_IN FO
Ġstr ings
g ment
Ġmatch es
Ġelect ric
Ġexcell ent
ĠC ouncil
id ade
Ġw x
p ush
_ entry
Ġtask s
Ġr ich
s a
ĠSm ith
UN CTION
Point er
pect ive
13 1
Ġw idget
ist a
Ġag ency
Ġs ich
olog ies
Ġtri al
al ysis
. check
AR K
Ġon Change
ab out
', $
( val
Ġpl aced
_N O
Ġd an
.e qual
ĉ ĠĠĠĠĠ
Ġwe ather
.g ame
Ġdest ination
_ USER
ie ce
Ġprovid er
.l ast
ple x
N ote
/ js
Ġp Ã¥
Ġpl anning
at tribute
P RO
atch es
Ġ< -
Ġsee ing
Ġcan cel
_ ind
.key s
Ġvis ual
ĠC urrent
ĠCol lege
ĠR ock
Ġagre ement
ĠSt ore
ov ing
Ġcor ner
amp ions
I SE
F in
Ġprote ction
Ġf i
Pl ay
pl ugin
) }
.f rame
- z
Ġtrans ition
ig in
Ġcandid ate
ĠUn ion
_ values
(m ap
c le
Ġtre nd
w ide
are n
L oc
UT H
ĠB ay
Ġsmall er
i us
14 1
w ell
Ġcr iminal
Ġconf lic
b ert
_IN T
Ġinvest ment
c ustom
ĠS ession
_w rite
an ia
ĠM ass
_E Q
_N OT
Ġviol ence
Arg ument
_ email
Ġbel ong
_f unction
Ġen emy
em a
ĠAdd ress
. empty
Ġin ner
ĠCont act
Lo ader
< input
ĠC A
l ot
Ġp ictures
ĠS upport
_n ames
18 8
L ayer
ĠC lick
S um
Ã ¦
ĠL ook
u ous
L ib
Fl ags
te am
E P
18 9
h at
over ride
aps ed
Ġlabel s
qu is
ĠSt ream
_de vice
ĠCom mit
( root
" }
.is Empty
12 6
ĉ M
Ġan gle
ĠB ecause
%%%% %%%%
Ġa im
Ġst ick
st mt
ag raph
ans wer
Ġcl in
ĠIs l
. ext
ĠIN T
Ġst yles
Ġb orn
Ġsc r
Ġexp and
Ġrais ed
Text Box
IL L
-------------------------------- ----------------
HT TP
1 32
> )
_ char
res ource
Ġep isode
Ġ' _
ĠE s
ĠEar th
Âł Âł
UP DATE
13 3
ĠS ou
u is
t ypes
Ġm as
Ġf av
Ġcon struct
_r ate
er as
Ġ| Ċ
rop erties
Ġext ernal
Ġap plied
Ġpre fix
ot ed
l ers
Ġc old
ĠS P
ĠCh urch
ĠOut put
los ed
ç ļ
ific ate
oper ation
her it
x FF
. env
_ err
os h
D irection
C ancel
ĠFr ank
Ġfind ing
. )ĊĊ
Ġr outer
ãĥ »
s es
Ġc row
== '
Ġs and
Ġr id
it ure
Ġent re
Ġo bserv
Ġv ac
ð Ł
- T
A rt
n ight
. search
Ġex change
Ġdistr ict
. os
Ġdep artment
Ġdoc uments
Ġcent ury
ĠN ext
H ost
ĠK IND
Ġsus p
- P
re nd
. em
u ite
ist ers
( json
ĠAn n
w t
at i
ĠHT ML
wh en
D irectory
Ġsh ut
< a
ed y
Ġhealth y
Ġtemper ature
ĠG en
Ġmet al
Ġsub mit
ĠD O
Ġat tract
Ġ{ };Ċ
ĠW ord
Ġl l
Ġseem ed
k o
I ED
Ġl abor
.Cont ext
Ġas set
y ou
Ġc ars
ĠC olumn
Ġr Ã©
Ġs quare
ĠNS String
âĢĿ ,
ap es
.. .Ċ
Ġthan ks
( props
Ġt ick
Ġexper iment
Ġpr ison
t ree
- text
ĠIO Exception
-w idth
_ST ATUS
f ast
-b ody
- header
Ġgu ar
cre te
ĠT im
Ġclear ly
ĠRepublic an
Ġjust ify
Ð¸ ÑĤ
ĉ ĠĠĠĠ
c ache
; //
Ġpres ence
Ġfact ors
Ġemploy ee
] ))
M ember
Ġselect or
b or
ĠM ex
çļ Ħ
ut ex
_t ag
ail ure
ĠN et
Ġre li
E G
Ġf printf
Ġte en
lo ss
Ġle aving
13 4
De legate
Ġbe at
Ġmin ute
sub scribe
Ġredistrib ute
Con stants
Ġcan cer
/ {
B L
Ġs pan
ĠCh ild
C enter
Ġear th
Y S
ĠLe vel
Ġse a
.s upport
.in ner
. Item
ill ing
ĠĠĠĠĊ ĠĠĠĠĊ
ĠL abel
3 20
ĠE st
( arg
14 5
bo Box
ĉf oreach
c os
F ailed
sw ers
Ed itor
r ont
ĠM P
ex pr
ĠL ife
Ġ? ?
Ã¶ r
Ġatt end
ĠQ ue
Ġspec ies
- D
Ġa us
Str uct
Ġadvant age
ost on
-b lock
in itial
C RE
Ġtr uly
Ġcomp are
or ney
Ġs pect
F ull
b es
Ġvis ible
Ġm ess
st ances
Ġcl oud
_v ersion
Ġf urn
ic ago
LO W
Ġtraff ic
Ġf ol
rypt o
Ġdecl ar
Ġsl ot
ĠEx t
ĠEng land
ĠU nder
Ġt a
let ter
20 3
Ġoffic er
ĠDon ald
Y es
_ json
IT ableView
ĠU SE
mploy ee
Ġopin ion
ĠA ut
b order
Ġad vice
Ġautom atically
is co
Ġm m
. vis
am l
Ġinitial ize
Ġ( {
Ġ ;ĊĊ
Ġgener ation
Ġb its
clip se
Ġun f
ut ors
pl t
Ġdel ta
est roy
is is
< br
Ġlimit ations
Ġend ed
ĠM ad
il m
Th ese
18 7
ĠMin ister
Ġch art
F ragment
Ġindepend ent
Y ear
Ġin str
Ġt ags
A VE
ĠAr ch
st op
Pro gress
Ġm i
Ġlearn ed
G e
Ġhot el
15 1
S M
T YPE
Ġc y
ERS ION
un ately
l imit
s el
Ġmov ies
Ġste el
o z
g b
ĠC amp
s ite
ĠLog ger
P LE
Ð¾Ð ´
. right
ĠC ore
Ġm ixed
st ep
Ġput s
s uper
R outer
18 6
. Http
22 2
ly ph
ĠColor s
Ġandroid x
. str
Ġinn ov
Ġde ck
' >Ċ
ap ers
] (
cont inue
s pec
ĠR oad
AS H
ili ar
Ġcontin ues
Ġapp oint
Ġ# Ċ
ĠV ir
Ġ?> "
Ġb in
} ",
go ing
e ach
B D
18 5
ĠA ccess
D oc
ĠMan agement
B ER
ask et
.get Instance
12 9
Ġestablish ed
so cket
IN S
ĉv irtual
ĉ result
RE AD
_ height
15 2
ĠF ont
Ġ( );Ċ
_ html
Ġneighb or
l or
Ġg ather
Ġ} )ĊĊ
Ġid entity
Ġf ab
p adding
ĠR oute
Enumer able
Ã ´
Ġfor ced
/j query
.ĊĊ ĊĊĊĊ
res ents
_ left
.P aram
ĉ throw
ĠH am
Ġevent ually
ac er
p ub
Ġtr a
un ique
d el
ĠFlor ida
ĠC lean
x a
ĠÂ ·
Ġvalid ate
Vis ual
Ex pression
_f unc
m ember
ĉ h
tr l
13 6
ĉ G
nap shot
ĠProp Types
v in
15 3
] )ĊĊ
ow l
if ies
Ġ$ ('.
ĠCont ext
ĠTo ast
. Key
Ġoffic ers
/ n
s n
und efined
. items
ut ow
am age
Ġaccount s
ook ie
Se ction
ici ans
Ġad vis
( is
[: ,
ĠFr ance
F unc
ic ious
Ġto k
Ch annel
ĠA D
_N UM
Ġtime out
lem ma
rem e
u j
.A l
uc lear
( os
(" <
[ Ċ
f etch
Ġb al
Ġgu id
- align
ĠW rite
ĠOn ce
utow ired
OD ULE
Ġp itch
C F
by tes
ĠCom mission
Ġincre d
P ER
_ response
ĠL os
par ser
Ġass ume
. Request
ĠT oken
_p osition
Ġn om
- term
Ġrem aining
i ostream
Ġpie ces
ap y
ĠL ess
r ange
umb n
pr ise
_ option
2 30
Im pl
k wargs
Ġbusiness es
Al ert
Ġpart ies
ĠCont ainer
ĠPr ivate
ĠPl an
Ġregister ed
Ġj our
ack er
ÐµÐ½ Ð¸
/ >
ch at
se ct
Ġcre ation
olut ely
Ġinst ant
Ġdel ivery
ick en
y es
16 3
ĠFr anc
bl ing
end a
[ (
_r ange
ĠĠĠĠĠĠĠĠĠĠĠĠĠĠĠĠĠĠĠĠĠĠĠĠĠĠĠĠĠĠĠĠ ĠĠ
Ġsched ule
Con n
Ġthan k
x d
Ġh ook
Ġdocument ation
Param eters
H ello
v t
Ġart icles
Ġw est
def ined
. select
ok ens
ĠV AL
.f ile
res et
Ġmy s
ĠM A
] ),
Ġc ities
rel ated
å Ľ
Ġappe ared
Ġw id
.p anel
ĠIn s
. entity
Ġde cre
ĠL ou
(t ime
ĠTh ank
.create Element
Ġmention ed
oun ce
ĠT ry
ĠW all
/ images
ĠM enu
' čĊ
ĠE r
Ġcrit ic
ĠY ear
( param
Ġf lo
N N
oot er
Ġ ];Ċ
ĠA ff
" github
room s
Ġh yp
g lobal
Ġa vec
æľ Ī
Ġcomplet ion
Ġcon d
onym ous
( temp
Ġst ars
Ġre levant
Ġcover ed
Ġel im
_t ypes
( bool
Ġt u
_ex ists
Ġsec ure
Ġst ored
] /
x F
ĠCont roller
Ġm igr
M I
ĠD en
Ġann ual
U IL
- and
Ġcr ime
b el
Ġk itchen
@ g
_p h
ourn ament
ĠS ocial
ĠS pecial
log ger
Ġt ail
Ġun known
d ed
Ġapp rec
(d b
c f
15 5
Ġass ign
- out
ĠM ont
d p
w idget
Ġst one
- primary
. grid
Result s
az z
Ġda ughter
Ġcur r
17 5
Ġl in
Ġs outh
form s
ĠO UT
let te
ak s
ig ure
ĠE U
var iable
Ġb rief
ĠSc ott
Ġcon ference
and a
_ lock
or al
Ġe ine
OR S
//////////////////////////////// ////////////////////////////////
ess o
Ġr is
Ġg ender
est ic
L icense
( out
Ġm s
Se e
Ġwill ing
az e
Ġs ports
Ġy es
l u
Ġp urs
/j avascript
- pro
nav bar
_pro duct
/ bootstrap
Ġdr iving
Ġ Ä
Ġpro pos
ult ip
up lic
. email
Ġappro x
( cl
Ġwe ar
Ġrep ly
ass et
Ġ ice
Ġt x
k r
ĠGerman y
ĠGe orge
Ġc b
ĉ err
M ove
Ġpol y
vo ice
} "
Ġan imal
A v
ĠL ocation
Ġn ative
] ["
< double
Ġm ais
, int
Ġpre par
Ġinter val
plement ation
_ ERR
Ġb ug
> "
st at
Ġ} ,čĊ
< span
Ġfa ith
Ġ rom
pre v
ĠE lect
F ind
Ġg od
ot or
// ----------------------------------------------------------------
orig inal
C pp
ĠSen ate
Ġposition s
Ġweap ons
Ġco ff
Ġpur poses
p ol
Ġim press
Ġanim als
. Entity
(n p
Ġmur der
Ġ` `
fl ag
Ġsol utions
ĠAct ive
Ġb right
.d ate
Ġsit u
ï¼ Ī
. ID
Ġs ie
), čĊ
ak t
S pace
.d at
.index Of
h an
az ine
ĠZ e
Ġcr ash
( /
> =
Ð ±
13 9
iv a
.Auto Size
ĠL at
_ ext
Initial ize
.reg ister
15 6
OP Y
Ġre verse
_d is
'] [
Ġprom pt
ont o
ĠJ ournal
r outer
Ġmys qli
# else
) "
-x s
let s
ph an
. LE
13 7
W ill
Ġaff ord
Ġsk ill
-t oggle
N C
B ind
T S
J ust
iter al
Y P
ĉ unsigned
Ġw ind
14 9
)) :Ċ
Ġw arning
ĠW ater
Ġd raft
Ġc m
Ġs am
Ġhold ing
z ip
ĠSc ience
Ġsup posed
G en
Ġdi et
< h
ĠP ass
v i
Ġhus band
ï¿½ ï¿½
n ote
ĠAb out
ĠIn stitute
Ġcl imate
.Form at
Ġn ut
est ed
Ġapp arent
Ġhold s
f i
new s
C M
v ideo
': '
D ITION
p ing
Ġsen ior
w a
-- >Ċ
_ default
ĠD atabase
re p
E SS
ner gy
.F ind
_m ask
Ġr ise
Ġk ernel
:: $
. Q
Ġoffer ing
de cl
ĠC S
Ġlist ed
Ġmost ly
eng er
Ġblock s
ol o
Ġgover ning
\ F
Ġcon cent
.get Text
Ġm b
Ġocc urred
Ġchang ing
Sc ene
_C ODE
B eh
" The
Ġt ile
ĠAssoci ation
ĉ P
al ty
_ ad
od ies
i ated
Ġpre pared
poss ible
Ġm ort
TE ST
14 2
Ġign ore
Ġcal c
Ġr s
Ġassert Equals
Ġs z
ĠTH IS
. "Ċ
Ġcan vas
j ava
Ġd ut
VAL ID
.s ql
. input
Ġa ux
S up
Ġart ist
V ec
_T IME
.string ify
et ween
ĠC ategory
Ġ[ -
ĠDev Express
ĠJ ul
Ġr ing
. ed
Y Y
L et
Text Field
Ġfl at
_p rint
ĠOT HER
ad ian
Ġcheck ed
e le
Al ign
stand ing
Ġ[ ],
Ġl ab
uck y
ĠChrist mas
( image
.m odule
Ġl ots
Ġslight ly
(f inal
er ge
è ¿
14 7
ĠPol ice
14 3
ĠR ight
Ġaw ard
ĠO S
Ġ{ }ĊĊ
Ġp tr
ov es
ic ated
ÐµÐ ¼
Ġman age
olid ay
Am ount
ool Strip
t body
N av
w rap
B B
Ġwatch ing
ari os
Ġoption al
_ K
ĠL icensed
.M ap
T imer
ĠA P
ĠRe v
( o
, c
um in
eta iled
ĠH y
Ġbl ank
ag ger
ĠS elf
() [
.m ake
ear n
ch annel
< pre
ble m
_p assword
_s p
ic ing
e z
Ġthe ory
ĠT er
18 4
, n
log o
ĠHT TP
() ))
.h andle
> ;Ċ
W orld
Ġpy thon
Ġl if
Ġtr av
Ġcon ven
com pany
ĠCl ub
13 8
V er
B tn
Ġz one
product s
ĠE duc
Ġver ify
ĠM il
on o
] );ĊĊ
EN CE
Ġpack et
Ġc er
Ġen umer
Ġpar s
form ed
Ġocc up
t re
Ġexerc ise
D ay
_s um
Ġask ing
apt ion
Ġord ers
Ġsp ending
ĠE RR
.D is
ĠU til
âĢľ I
\ '
? )
/ >Ċ
Ġem ot
Ġinflu ence
ĠAfr ica
att ers
Ù ħ
.s ession
Ġch ief
ĉĉĉĉĉĉĉĉ ĉĉĉ
Ġto m
clud ed
ser ial
_h andler
.T ype
ap ed
Ġpolic ies
- ex
- tr
bl ank
mer ce
Ġcover age
Ġr c
_m atrix
_ box
Ġcharg es
ĠB oston
P e
Ġcirc um
Ġfil led
14 8
Ġn orth
icture Box
ĉ res
è ®
Ġter min
Ġ[ âĢ¦
IRE CT
Ġb er
Ġ" ../../
ret ch
.c ode
_c ol
ĠGovern ment
Ġarg v
ĠL ord
as i
Ex ec
ĉ let
vert is
Ġdiscuss ion
en ance
out ube
type of
Ġs erved
ĠP ut
ĉ x
Ġs weet
B efore
ateg y
. of
ĠM aterial
S ort
ON T
ig ital
Wh y
Ġs ust
Ġ ç
ab et
Ġseg ment
Ġ[ ],Ċ
ĠMus lim
Ġfind ViewById
c ut
_T EXT
ĠM ary
Ġlo ved
Ġl ie
ĠJ O
Ġis set
mon th
Ġpr ime
t i
ĠCar ol
U se
14 6
ĠP op
ĠS ave
Int erval
ex ecute
d y
ĠI ran
_ cont
ĉ T
Ġph ase
check box
we ek
Ġh ide
Ġt il
Ġj u
C ustom
b urg
/ M
T ON
Ġqu ant
Ġr ub
ix els
Ġinst alled
Ġd ump
Ġproper ly
( List
Ġdec ide
app ly
H as
Ġkeep ing
Ġcitiz ens
Ġj oint
p ool
S ocket
_ op
Ġweap on
gn ore
ĠEx ec
ott en
ĠM S
Ġ( -
ĠRe view
Ġex amples
Ġt ight
! (
D P
ĠMessage Box
Ġphot ograph
16 4
UR I
Ã© t
l ow
ĠGr and
.p ersistence
Ġmaint ain
Ġnum s
Ġz ip
ial s
ĠG ets
pe g
ĠB uffer
~~ ~~
ra structure
ĠP L
u en
ob by
size of
Ġp ic
Ġse ed
Ġexperi enced
Ġo dd
Ġk ick
Ġproced ure
avig ator
- on
, j
ĠAl though
Ġuser Id
ac cept
Bl ue
IC olor
l ayer
av ailable
Ġend s
.t able
Ġdat aset
b us
Ġexpl ain
( pro
ĠCommit tee
Ġnot ed
] :Ċ
D im
std io
15 4
. ",Ċ
_s ource
18 1
ĠWe ek
ĠEd ge
Ġoper ating
Ġest e
i pl
3 30
ag ination
Ġpro ceed
Ġanim ation
.Model s
ĠW atch
i at
Ġopp on
/ A
Re port
Ġs ounds
_b uf
IEL D
Ġbu nd
ĉ get
.p r
(t mp
Ġk id
>ĊĊ Ċ
Ġy ang
Not Found
Ñ Ĩ
m ath
@g mail
ĠL IMIT
red ients
Ġv ent
avig ate
L ook
Ġrelig ious
Ġr and
ri o
( GL
_ ip
u an
ici ency
ĠCh ange
> čĊčĊ
ĠEnt ity
Ġrencont re
ĠR et
pl an
Ã© n
BO OL
ur ies
tr ain
Def inition
======== ====
z z
4 50
An imation
ĠO K
_m enu
.b l
_s core
Ġac ad
( System
Ġref resh
'=> $
.G raphics
ament o
p id
t c
Ġt ips
Ġhom es
Ġf uel
â ĸ
_h elper
ĠĠ čĊ
ĠR oom
.C lose
_ attr
ĠM ount
ĠE v
ar ser
_t op
e ah
ĠDe lete
ãĢ į
u ke
Ġus age
ar ia
_de v
Ġtext ure
Ġconvers ation
e per
Be an
d one
non atomic
ĠSe cond
Ġshoot ing
_p re
Com ponents
Ġ] ĊĊ
__ ,
stit ution
.Ch ar
> ();ĊĊ
Ġpresent ed
Ġw a
ok er
- ĊĊ
in er
Ġbe coming
Ġinc ident
At t
16 2
Ġreve aled
for c
Ġbo ot
.p age
Enumer ator
16 5
_ ->
Ph oto
Ġs pring
. ",
ĠD ictionary
B JECT
Ġloc ations
Ġs amples
Input Stream
ĠB rown
Ġst ats
qual ity
Ñ ħ
-d is
Ġhelp ing
Ġp ed
2 24
( se
ĠWh o
al ian
int ernal
Ġf t
> ().
-> {
Ġm ine
Ġs ector
Ġg ro
Ġopport unities
ĠÃ ¼
Ġm p
Ġalleg ed
Ġdoub t
M ouse
Ab out
_p art
Ġch air
Ġstop ped
16 1
lo op
ent ities
Ġapp s
ans ion
Ġm ental
ĠĠĠĠĠĠĠĠĠĠĠĠĠĠĠĠĠĠĠĠĠĠĠĠĠĠĠĠĠĠĠĠ ĠĠĠĠĠĠĠĠĠ
F R
Ġdef end
c are
Ġide al
/ api
ur face
0 11
Ġe le
ul ator
ĠR ights
angu ages
Ġfund s
Ġad apt
At tributes
Ġdep loy
opt s
Ġvalid ation
Ġconcern s
u ce
.n um
ult ure
il a
Ġc up
Ġp ure
.F ore
18 3
ĠHash Map
.value Of
as m
M O
Ġc s
Ġst ores
Ġ ************************************************************************
Ġcommunic ation
m em
.Event Handler
. Status
_ right
.set On
S heet
Ġident ify
ener ated
order ed
Ġ" [
Ġs we
Con dition
ĠA ccording
Ġpre pare
Ġro b
P ool
Ġs port
r v
ĠR outer
Ġaltern ative
( []
ĠCh icago
ip her
is che
ĠDirect or
k l
ĠW il
key s
Ġmy sql
Ġw elcome
k ing
ĠMan ager
Ġca ught
) }Ċ
S core
_P R
Ġsur vey
h ab
He aders
AD ER
Ġdec or
Ġturn s
Ġr adius
err upt
C or
Ġm el
Ġin tr
( q
ĠA C
am os
M AX
ĠG rid
ĠJes us
ĠĠĠĠĠĠĠĠĠĠĠĠĠĠĠĠĠĠĠĠĠĠĠĠĠĠĠĠĠĠĠĠ ĠĠĠĠ
.D E
Ġt s
Ġlink ed
f ree
ĠQ t
Ġ/** čĊ
Ġf aster
ct r
_ J
D T
.C heck
Ġcomb ination
Ġint ended
- the
- type
18 2
ect ors
am i
ut ing
Ġum a
X ML
U CT
A p
ĠR andom
Ġr an
.s ort
Ġsort ed
. Un
40 1
_P ER
it ory
Ġprior ity
ĠG al
ĠO ld
h ot
ĠD isplay
(s ub
_T H
_ Y
ĠC are
load ing
K ind
_h andle
, ,
r ase
_re place
.add EventListener
ĠR T
17 2
Ġenter ed
g ers
Ġ ich
( start
20 5
/ app
Ġbro ther
M emory
Out let
Ġ utf
pre c
Ġn avigation
OR K
Ġd st
D etail
Ġaud ience
Ġd ur
Ġcl uster
un ched
Ġ ],
Ġcomfort able
. values
ĠT otal
Ġsn ap
Ġstand ards
Ġperform ed
h and
(" @
å Ń
Ġph il
ib r
tr im
Ġfor get
15 7
Ġdo ctor
.Text Box
37 7
icon s
, s
ĠO p
S m
St op
ĉ List
ĉ u
Com ment
_V ERSION
.X tra
P erson
r b
LO B
ĠĠĠĠĠĠĠĠĠĠĠĠĠĠĠĠ ĠĠĠĠĊ
ĠCent ral
27 0
IC K
ra q
Ġput ting
Ġm d
ĠL ove
Pro gram
B order
o or
Ġallow ing
a fter
Ġent ries
ĠMay be
] ).
ĠSh ort
) \
.n ow
f riend
Ġpre fer
ĠG PIO
os is
ĠGame Object
Ġsk ip
Ġcompet ition
_m atch
lic ations
_CON T
.group Box
Ġal s
66 6
" We
_e q
l an
_ search
ĠMus ic
as is
Ġb ind
ĠIs land
r um
( E
Ġse at
V ideo
Ġa ck
ree k
={ ()
Ġr ating
Ġrestaur ant
45 6
DE X
(b uf
pp ing
ual ity
Ġle ague
17 6
Ġfoc used
ap on
$ data
CL UD
CLUD ING
Ġabs olute
( query
Ġtell s
A ng
Ġcomm unities
Ġhon est
ok ing
Ġap art
ar ity
/ $
_m odule
ĠE nc
. an
.Con fig
C re
Ġsh ock
ĠAr ab
I ENT
/ re
Ġre trie
ycl er
is a
ĠO rgan
. graph
Ġ í
ĠB AS
En um
Ġposs ibly
ÑĢ Ð°Ð
ĠJapan ese
Ġc raft
ĠPl ace
Ġtal ent
Ġfund ing
Ġconf irmed
Ġc ycle
/ x
G E
Ġhe aring
Ġpl ants
Ġm outh
p ages
or ia
ĠRem ove
_t otal
Ġo d
oll apse
do or
Ġb ought
Ġadd r
AR CH
_d im
dd en
Ġdec ades
RE QUEST
Ġvers ions
f ire
00 6
Ġmov es
f b
Ġcoff ee
.con nect
ĠR ow
Ġs chema
S cope
- Type
Ġfight ing
Ġret ail
Ġmod ified
T F
File s
n ie
_com mand
st one
Ġ ÑĤ
_ thread
Ġb ond
ĠDevelop ment
Ġp t
F ORM
ple t
Ġident ified
c pp
20 6
2 25
Ġc oding
ok ed
ĠM aster
ID TH
Ġres idents
red it
ĠPh oto
= -
un te
ate ur
15 9
_ST ATE
ĠS ing
Ġshe et
. val
or se
Ġh ers
Ġdetermin ed
Com mon
Ġw ed
_ queue
P H
ĠAt l
cre d
/L ICENSE
Ġm es
Ġadv anced
.j ava
.S h
G o
k ill
f p
_set tings
Ġp al
Ġtr uck
Ġcomb ined
Ġ" ${
ĠCor por
Ġjo ined
ĠJ ose
ĠC up
un s
est ival
lev ision
Ġbro ken
Ġmar riage
ĠWest ern
Ġrep resents
ĠT itle
Ġs s
.A ss
ongo ose
ient o
< >();Ċ
Ġabs olutely
Ġsm ooth
TER N
ĠUn less
W ord
Ġmer ge
ig an
ĠV ol
Ġn n
.get Id
ĠÐ ·
17 1
Ġsex y
Ġseek ing
S ingle
. this
17 9
Ġk om
b ound
; "
Ġfont Size
_d f
Ġinj ury
( H
Ġiss ued
_ END
: self
0 20
Ġp atch
Ġle aves
Ġad opt
File Name
ãĢ Ĳ
Ġexec utive
ĠBy te
] ))Ċ
Ġn u
out ing
clud ing
- R
. options
Ġsub stant
av ax
ĠB UT
Ġtechn ical
Ġtw ice
Ġm Ã¡s
Ġun ivers
y r
Ġdr ag
ĠD C
Ġs ed
Ġb ot
ĠP al
ĠH all
forc ement
Ġa uch
.m od
not ation
_file s
.l ine
_fl ag
[ name
Ġres olution
Ġb ott
(" [
end e
( arr
F ree
( @"
ĠD istrict
PE C
: -
P icker
ĠJ o
ĠĠĠĠĠ Ċ
ĠR iver
_ rows
Ġhelp ful
Ġmass ive
--- Ċ
Ġmeas ures
00 7
ĠR untime
Ġwor ry
ĠS pec
ĉ D
ãĢ ĳ
Ġ) {Ċ
Ġwor se
(f ilename
Ġl ay
Ġmag ic
ĠThe ir
ou l
st roy
ĠWh ere
2 80
Ġsu dden
Ġdef e
Ġb inding
Ġfl ight
ĠOn Init
ĠW omen
ĠPol icy
Ġdrug s
ish ing
(' ../
ĠM el
pe at
t or
Ġpro posed
Ġst ated
_RE S
Ġe ast
2 12
ĠCON DITION
_d esc
Ġwin ning
fol io
M apper
ĠP an
ĠAn ge
.s ervlet
Ġcop ies
L M
Ġv m
å į
Ġd ictionary
S eg
17 7
el ines
ĠS end
Ġ iron
ĠF ort
16 6
.d omain
Ġdeb ate
Not Null
e q
ach er
l f
ĉf mt
Ġlaw y
17 8
Ä Ł
ĠM en
Ġtr im
( NULL
Ġ! !
Ġp ad
Ġfollow s
"] ["
re qu
ĠE p
.g ithub
( img
et o
(' \
S ervices
umbn ail
_m ain
ple ted
fort unately
Ġw indows
Ġpl ane
ĠCon nection
. local
u ard
} \
== "
and on
ĠR oy
w est
15 8
ig inal
em ies
it z
') :Ċ
ĠP eter
Ġt ough
Ġredu ced
Ġcalcul ate
Ġrap id
c ustomer
Ġeff icient
Ġmed ium
Ġf ell
. ref
ĠC as
Ġfeed back
S peed
( output
aj e
Ġc ategories
Ġfe e
} ;
Ġde leted
re h
Ġpro of
D esc
B uild
Ġs ides
.Array List
- %
ĠĠĠĠĠĠĠĠĠĠĠĠĠĠĠĠĠĠĠĠĠĠĠĠĠĠĠĠĠĠĠĠ ĠĠĠĠĠĠ
Ø ±
.m atch
Ð» Ð¸
Ġfe els
Ġachie ve
Ġcl im
_ ON
ĠC D
Ġteach er
_c urrent
b n
_P L
ist ing
En able
G EN
Ġt v
Ġso ck
Ġpl ays
Ġdis count
ĠK E
ĠDe bug
F ore
ĠI raq
Ġappear ance
M on
Ġst yled
ĠH uman
i ot
ĠH istory
Ġs ac
ĠC ollection
Ġrecomm ended
.Se lected
Ġorgan izations
Ġdiscover ed
co hol
ad as
ĠThom as
M ay
Ġcons erv
Ġdom in
ĠF ollow
ĠSe ction
ĠTh anks
User name
Ġrec ipe
Ġwonder ful
.s leep
_ if
ĉĊ ĉĊ
orn o
Ġr u
_t arget
." "
à ¦
Event Args
Ġinput s
Ġf if
Ġv ision
c y
ĠS eries
) (((
Ġtr ading
Ġmark er
B egin
Ġtyp ically
Ġca uses
drop down
_DE BUG
2 60
Ġdet ect
c ountry
! ");Ċ
ĉ R
app y
Ġc ref
(' <
" =>
ĠL E
read er
Ġadmin istr
Ã µ
uck et
Ġf ashion
. char
iz ar
Ġdis able
Ġsu c
ĠL ive
iss ue
Ġmet adata
fl ags
Ġ ðŁ
Ġcomm itted
Ġv a
Ġr ough
Ġ'' 'Ċ
Ġhigh light
_var s
V O
Ġenc oding
- Z
_s ign
$ ("#
Ġr ain
reate st
ĠEN D
Se lection
Ġcandid ates
Ġs av
. Empty
Ġdec isions
Ġcoll abor
rid ge
fe ed
ress ion
Ġperson s
V M
00 8
eg a
_B IT
A ccording
ack ed
Ġdoll ars
_lo ss
ĠC ost
} "Ċ
Not ification
Ġpro stit
Ġauthor ity
.re c
Ġsp okes
ĠT oday
ist ant
ĠHe ad
âĢĿ .
ertain ment
ce an
cul ate
Ġv en
How ever
_ arr
Ġtok ens
G raph
ĠJ ud
ĠVir gin
ĠS erial
un ning
M utable
ag ers
.c sv
Ġdevelop ing
Ġinstruction s
Ġprom ise
Ġrequest ed
_ encode
/ "
ĠI con
u ilt
- day
Ġint elligence
. IS
ĠO bservable
ĠH ard
Bo ol
2 11
ident ial
.An chor
Ġsell ing
C I
AG ES
t le
b ur
UFF ER
R Y
Ġbig ger
Ġr at
Ġfam ous
Ġtyp ename
Ġexpl ained
} }Ċ
Ġn uclear
- N
Ġcr isis
ĠEnt er
Ġan swers
/ ${
/ pl
Ġse qu
_n ext
m ask
Ġstand ing
Ġpl enty
ĠC ross
ĉ ret
d ro
ĠC ast
16 7
= true
ĠCh ris
ic io
ĠM ike
Dec imal
add Component
L en
Ġco ck
Ġ# {
UR N
< tr
Ġauthor ities
Res ources
- H
B ottom
0 12
_ qu
put er
ester day
Dis patch
s ince
Ġfam iliar
, i
V C
Ġm ent
, C
Ġfre edom
Ġr outes
ĠB uy
Ġcomm ands
Ġm esh
/ C
ĠSet tings
- style
Ġw itness
Ġc le
Ġun ion
ef ault
are t
Ġthought s
Ġ ----
_pro cess
_ us
ing ly
U ES
T ouch
ĠÐ ¼
_ open
ĠV ec
Ġre ward
.C lick
/ :
Ġn ie
Ch anges
M onth
ï¼ Ł
Ġexec ution
Ġbe ach
( Integer
ĉ a
/ '
.Font Style
Ġab ort
ĠS ingle
( isset
Ġd p
Ġ}} </
ĠM a
2 14
.R ows
ĠP et
% )
r and
é Ģ
R ule
Ġh el
0 21
R ITE
Ġqu iet
Ġr atio
ĠCONDITION S
os oph
ĠI L
Ġad vent
c ap
; </
ĠUS B
D river
Ġour s
ĠJohn son
. K
_de lete
. q
ĉ str
/ common
ĉ string
ĠP DF
act s
.A ction
ĠQu ery
. response
ĠG irl
Ġprocess es
< Integer
im o
Ġadd s
Ġentire ly
Ġwas h
/ ************************************************************************
Ġanim ated
Ġprof it
enc ing
/ S
ĠS ym
Ġman ual
Down load
Ġ(! $
Ġmot ion
web pack
-b ottom
Ġgrat uit
P G
(: ,
Ġ era
Ġh o
ĠJ im
qu ir
ĠBAS IS
Ã¡ n
D ER
Ġexp ensive
_c o
B ounds
W ell
ĠDemocr atic
ĠâĨ Ĵ
.R em
_S Y
n ames
ĠV i
Ġis instance
\ ">
Ġ* =
ĠP S
Ġdanger ous
[ p
OM E
O ther
ĠString Builder
Point s
head ing
Ġc urrency
Ġpercent age
_A PI
Ġclass ic
the ad
ĠM O
F E
Id x
aw ait
ĠÃ ¨
Ġacc ident
Ġvari ant
Ġm yst
ĠL and
ĠB re
Ġh arm
ĠA cc
Ġcharg ed
ion es
Vis ibility
ar ry
ĠL anguage
Ġwalk ing
" .ĊĊ
if er
Ġleaders hip
.F rom
yn am
Ġt imestamp
i pt
ĠH as
REF ER
ĠIt s
Ġlist ener
UT E
2 13
_d escription
Ġexperi ences
Ġcre ates
R S
c art
bl ack
Ġcho ices
w ar
7 50
Ġ'' '
Ġorder ed
Ġeven ing
Ġp il
Ġt un
ĠB ad
( app
r andom
Ġexp licit
Ġarr ived
Ġf ly
Ġecon om
-m ail
Ġlist s
Ġarch itect
23 4
ĠP ay
Ġd s
ĠS ol
Ġveh icles
H z
- com
Ġk ing
_e qual
ĠH elp
Ġab use
4 80
16 9
-- ;Ċ
Ġex tr
Ġchem ical
ä ¿
Ġor ient
Ġbre ath
ĠS pace
(e lement
w ait
DE D
ig ma
Ġent r
Ġs ob
- name
Ġaff ected
ik a
Ġco al
_w ork
Ġhundred s
Ġpolit ics
sub ject
Ġconsum er
ANG E
Ġrepe ated
S end
Ġ# [
Ġprot ocol
Ġlead s
use um
E very
80 8
17 4
Im port
(c ount
Ġchalleng es
Ġnov el
Ġdep art
b its
.C urrent
Ġ` ${
ot ing
( \
Ġcreat ive
Ġbu ff
Ġintrodu ced
us ic
mod ules
A re
-d oc
l anguage
_c ache
Ġto d
? ></
om ething
Ġh un
å º
at ers
Int ent
Ġimplement ed
ĠC ase
Child ren
Ġnot ification
Render er
W rapper
Object s
t l
.Cont ains
Pl ugin
. row
Ġfor g
Ġper mit
Ġtarget s
ĠI F
Ġt ip
se x
Ġsupport s
Ġf old
ph oto
} ,čĊ
Ġgo ogle
$ ('#
Ġsh aring
Ġgood s
v s
ĠD an
R ate
ĠMart in
Ġman ner
l ie
. The
Int ernal
ĠCON TR
M ock
R IGHT
Ġ' {
Ġcontrol s
M at
Ġm and
Ġext ended
O k
Ġem bed
Ġplan et
ĠN on
- ch
) ",
ep ar
Ġbelie ved
ĠEn vironment
ĠF riend
- res
Ġhand ling
n ic
- level
s cri
X ml
B E
ung en
Ġal ter
[ idx
P op
c am
Ġ( ((
Ġsh ipping
Ġbatter y
iddle ware
M C
Ġim pl
ot ation
ĠL ab
< form
ĉ name
ĠG ames
r ay
Ex tra
T wo
( player
ĠL es
Â °
Ġchar set
Ġjour ney
et ing
æ ĺ
â Ķ
çĶ ¨
Ġd in
Ġper man
Ġsol ve
Ġla unched
Ġn ine
Ġs ending
Ġtell ing
.p assword
ĠM atrix
er ic
Ġgr ab
. u
ĠLib rary
Ġdeb t
IN K
.find ViewById
Ġfrequ ency
. ad
_T EST
Ġneg ot
ĠAfr ican
s ender
Å ¡
G lobal
17 3
Ġexpert s
++ )čĊ
Ġdep ending
gr ay
Ġjud ge
Ġsent ence
los ure
A c
Ġtr ace
Ed ge
Ġfriend ly
Ġconcern ed
b log
Ġclaim ed
} '
int eger
_t ree
ĉ continue
x i
Ġaccept ed
_ one
ĠEduc ation
ublish ed
g on
app oint
out s
Ġmin ing
Ġsong s
Ġhers elf
Ġgr anted
Ġpass ion
ĠL ake
Ġlo an
u ent
ch ant
Ġd etailed
ex cept
_c md
ĠH E
Rel ated
z t
' },Ċ
Ġspecific ally
St atic
Ġcar ried
AN S
\ ":
C reated
Ġc ul
] -
_ api
F P
Ġsit ting
Ġ" ")
ĉg oto
ĠE qu
Ġass ault
k ins
anc er
og en
Ġvot ers
ĠPro t
Des criptor
ãĥ ¼
.Ass ert
bs ites
ost er
-m enu
Ġar ms
.C lient
.back ground
av ity
Ġv ul
_M ASK
Ġhous ing
Ġbe ar
_ iter
p ired
Ġmark ets
ĠSt udent
Ġt icket
Ġmill ions
fl ater
) =
Ġre cover
ĠFor ce
ĠBo th
Ġvict im
ĠD isc
re port
Ġfour th
ĠAs sembly
/ user
Null Or
text area
Ġa th
Ġ( [
Ġch annels
ĠJust ice
cho ice
LOB AL
ex ec
em ale
Ġe lem
_ le
Ġrespons ibility
ĠT w
IC ATION
Ġelse if
Ġf o
ast s
Ġt reated
s en
ĠV ict
sum er
_B ASE
Ġa st
> {{
ĠRes ource
ĠSt andard
ĠP rem
up dated
ival ent
Ġas sets
_t emp
Ġinterest s
Ġhard ware
ĠR om
ĠSh are
Ġ' 'Ċ
Ġ* ,
ĠT ake
ĠIm ages
_C HECK
(type of
ĠJ un
\< ^
Ġli qu
Ġwor st
ymb ols
ĉĉĉ ĠĠĠ
Ġdr ivers
ĠD ocument
en o
ĠTechn ology
Ġappro ved
ump s
Ġs now
form ance
_A SSERT
u its
20 7
Ù Ĩ
Ġdiffer ences
. Visible
ĉĉĉ čĊ
ĠP s
_f etch
Ġto do
. ',Ċ
Ġs el
ur ers
in valid
Ġt weet
V EL
Ġresearch ers
Ġs printf
ĠR O
Ġp el
.Tr ans
Ġil legal
d ialog
sm arty
l g
_M IN
Ġher o
f inal
Ġp p
.L e
Ġc i
ĉ RT
Ġsuggest ed
p df
ach ing
ĠR o
ĠProp erties
ĠS i
Ġbuy ing
Ġm u
Ġl ands
if iers
ĠF ILE
RO UP
Ġh older
ĠS on
Ġsym pt
.r oute
) ?
Ġarg c
Ġfor t
Ġcas ino
_c ategory
Ġfor um
2 15
p refix
apt ure
T ube
em s
im ize
Ġn ue
a us
c ourse
AT OR
() ),
Ad vertis
ING S
Ġack now
ĠKore a
pl ing
Ġwork er
PL IED
h al
ĠRich ard
Element s
ĉĉĉ Ġ
st ar
Ġrelationship s
Ġche ap
AC H
ĠX ML
, &
ĠLou is
Ġr ide
_F AIL
Ġch unk
[ s
_O UT
Ġch osen
_ [
/ (
ĠJ eff
_s l
pr iv
ĠCan adian
Ġun able
_F LAG
Ġn os
h igh
Ġl ift
f un
() {
el ly
ycler View
_ as
_L IST
Ġr adi
.get Value
30 4
ĠAnge les
ĠS pan
_in stance
it ors
20 8
Ġm igration
A K
O h
Â ®
. selected
ĠG T
Ġadv ance
ĠSt yle
.Data GridView
e ction
Ñ İ
p io
ro g
Ġsh opping
ĠR ect
I lluminate
O U
ĉ array
Ġsubstant ial
Ġpre gn
Ġprom ote
IE W
.L ayout
Ġsign s
/ .
Ġlet ters
Bo ard
ct rl
" \
ĠJ ones
Ġvert ex
Ġj a
Ġaff ili
Ġwe alth
ĉ default
Ġsignificant ly
Ġe c
Ġx s
act ual
.p er
_st ep
an vas
m ac
Ġtrans l
ĠĠĠĠĠĠĠĠĠĠĠĠĠĠĠĠĠĠĠĠĠĠĠĠĠĠĠĠĠĠĠĠ ĠĠĠĠĠĠĠĠĠĠĠĠĠĠĠĠĠĠĠĠĠĠĠĠĠĠĠ
Iter ator
Ġo ch
agnost ic
ĠD uring
ĠDE FAULT
Ġt ill
Ġsign ature
Ġb ird
ĠO l
3 10
ĠI r
H S
av atar
ESS AGE
Ġe lev
Ġm t
ĠN av
Ġrel ax
Ġpl ate
IT EM
( date
.n ot
Ġgr ade
Ġ} ),Ċ
? "ĊĊ
i ences
H igh
ĠD IS
23 1
dis abled
Q UI
Ġno ise
a ux
ĠU P
88 8
os a
Ġv oc
Ġ ))
oc om
_O FF
ĠD b
L ock
.e clipse
, d
ĠD raw
Ġ" (
Ġvis ited
Ġâ Ī
Ġsuc ceed
Ġim possible
a ire
ĠT urn
Ġd ish
F G
Ġs ensor
AN N
ab a
Ġsur g
] );čĊ
Ġf p
_ an
- J
- G
ĠJ ob
Con vert
ĠKE Y
Ġauth ors
_s erver
\ r
Ġ-* -
f lex
Ġs oc
R et
Ġs alt
ĠâĢ¦ ĊĊ
ĠC lear
(p age
-d anger
Ġroom s
con v
# {
. op
ĠA rea
_S C
h en
Ġbeg ins
- y
Ġexc ited
Ġign ored
Ġbon us
st udent
ĠM ember
Ġrel atively
ĠL ow
ĠPro du
ate way
pos ure
Ġth ick
ani el
( view
ĠCr ush
Ext ension
I l
e ed
LO C
. im
. Items
Ġconflic t
.pre vent
25 2
Ġon Create
u v
is er
Ġw ave
M ar
ĠComm unity
ic he
ĠNo thing
[ m
ĠLe e
ri ends
2 32
Ã¨ re
!! !
an z
. result
ĠS K
_P ARAM
Ġdem ocr
Back Color
.ex ists
" It
( options
ra zy
as er
\ Database
al endar
_ ass
; }Ċ
vert ex
ine craft
W arning
arg o
Ġact or
ĠInst ead
ĠUs ing
S elf
@ interface
Ġspe aking
ĠPar is
ĠL ICENSE
.n ode
ĠF ood
E IF
ĠB i
. Start
ĠI B
Ġun iversity
25 4
ĠHe ader
.pro duct
40 9
C opy
et c
r ical
Ġ> >>
book s
Ġal gorithm
Ġ' __
(j avax
Ġnumer ous
Sh are
H ave
Ġrec ru
Ġpro ve
.sub string
he alth
Ðµ Ð»
Ġdec imal
Ġcomm ission
s cription
x C
Ġsum mary
att ed
Ġclo ser
fin ished
() ){Ċ
ĠW ood
30 1
_field s
k u
_ items
Fl ag
Ġconf idence
ĠF ederal
du x
Ġcomp at
Ġvert ical
Ð ¹
Ã¨ s
; ">Ċ
_m anager
() ))Ċ
ID E
: ",
23 5
__ Ċ
ĠW ay
22 1
Ñ Ī
T emp
ĠS TR
rit ten
S ync
ĠA V
ĠC EO
ĠG uid
Ġenvironment al
Ġcorrespond ing
ĉ console
Ġjust ice
ĠJ S
Ġl ived
g ar
ĠG raph
ĠSt at
Ġi Phone
. al
ĠH D
Ġocc ur
Ġth reshold
50 9
Ġon click
RE G
.Graphics Unit
M eta
Å ¾
Ġc um
.g nu
Ã «
Ġobt ained
Ġcompl aint
Ġe ating
Ġt ar
_t ask
Ġopt s
2 16
( to
P ass
Ġpl astic
t ility
ĠW in
.prevent Default
p ile
ĠG ar
Ġqu antity
_l ast
Ġg reatest
D ao
_D IS
ĠUs ed
ĠH P
rit ing
S ION
bl ue
d omain
Ġs cores
N ormal
_ admin
ĠA SSERT
Th en
** *
d ist
l on
Ġh ate
sh al
Image View
d atabase
Ġp and
Ġlog ic
= false
b g
ĠConfig uration
Ġn ur
O G
Ġmar ried
: +
Ġdro pped
0 40
Ġreg istration
Ð¾Ð ¼
ult iple
iz ers
sh ape
.c opy
Ġwe aring
ĠC ath
Ġded icated
Ġ.. .Ċ
Ġadv oc
ĠF amily
Ġstat ements
em atic
ampions hip
Ġmot iv
ĠH ave
Ġbl ow
J ob
c ert
_v ector
inst all
ĠC OPY
em bed
D IR
ĠS pring
Ġex hib
22 3
cd n
ĠCom ment
ĠOption al
. player
ĠD ark
( pos
ĠSh ould
Ġcent re
ĠGu ard
Ã³ w
Ġtr ouble
EN ER
( unsigned
_s ervice
Ġn s
ul ing
ĠMex ico
ĠN Y
mys ql
Ġl ic
å ľ
M r
- fl
ĠC ustomer
id i
Ġ? >ĊĊ
ri ble
ĠÐ¿ ÑĢ
Ġs izes
_STR ING
valid ation
ĠJ on
( Http
add Class
N odes
Ġfrag ment
Ġsp oke
Ġw aste
J oin
Ġill ustr
el i
c ient
Ġa id
Ġpro sec
') {Ċ
Ġpass ing
Ġf aces
Sh ape
_ Z
it i
Ġal le
Ġro bot
ĠĠĠĠĠĠĠ Ċ
ĠS pe
Ġrece iving
ĠD etails
Ġ" )
m g
_RE F
Ġcompar ison
* ,
ĠF ound
_s ession
( U
/ F
Ġx xx
N etwork
d ers
Ġcap ture
Ġcor re
ĠL td
ĠAd v
[ @
Ġcl ip
M ill
ĠPro file
Ġend if
Ġob lig
des cribe
.e lement
riter ion
L D
er ed
Ġfav our
s core
ĠF ilter
at tributes
Ġcheck s
In flater
ĠPl us
Ġscient ific
Ġpriv acy
He ad
Ġfe at
Ġdeg rees
ĠP ale
; ">
Ġfil ms
ĠA udio
ĠT ag
ĠE nergy
it ar
par ator
Ġf ellow
Ġev t
ĠT ri
ĠD AM
cl oud
ĠP assword
ĠDemocr ats
ĠAc ad
$ lang
Ġre b
() )ĊĊ
Ð½ Ñĭ
ĠB ur
read cr
Ġh ex
20 9
Con sole
ct l
ous el
ĠWill iam
Ġa z
_P ORT
Ġpract ices
Ġany where
ĠP osition
Ġ- >Ċ
i ams
.user name
place holder
Ġo der
ĠSecret ary
Ġi T
mon d
event s
? âĢĿ
.S ub
Ġatt ached
Ġn Ã£o
Ġest ate
36 5
. action
Ġfig ures
Ġ} );čĊ
Ġsubs cri
.t ag
n am
. plot
no on
li ament
Char acter
.t ab
Ġw inter
ĠVar iable
Ġtre es
Ġpr oud
( V
_ load
Ġh ier
ĠE con
Ġf d
Ġvict ims
R est
ian a
Ġf ake
.Print ln
Ġstr len
Ġs ad
Ġb le
Pro t
Ġbutton s
Ġte levision
Ġlog o
ext ension
ĉ j
ste in
acion es
Ġ"" "ĊĊ
Ġsim p
Ġrecord ed
Ġbr ings
Ġprincip al
Ġfe es
(s ource
k dir
Ġutil s
Ġcorrect ly
f il
Ġw el
P air
-b utton
s cale
ver ify
[ c
Ġ-- -
Ġes cape
ik es
Lower Case
ic ian
Ġch apter
ĠT YPE
Ġsh adow
Ġaw esome
W E
el if
Ġl ambda
Ġdist inct
Ġb are
- off
Ġcol our
.append Child
ole c
ag a
.f ill
ĉs uper
Ġad j
( position
.get Item
24 2
Sh ort
Ġtot ally
V D
ĠT re
_ ep
v ements
ĠS olution
Ġfund ament
F ollow
Ġfac ility
Ġhappen ing
O F
.text Box
S pan
ĠÂ «
id en
Ġex ceed
(p arent
Ġc p
ç »
Ġhas n
Ġp ri
Ġcon sequ
n en
ĠIN TO
I gnore
ĠF uture
Ġcar bon
ĠSte el
f mt
ok ie
Ġs pl
(t itle
- info
Ġde als
Ġfix ture
e a
D iv
Ġtest ed
_ return
)ĊĊ ĊĊ
upport ed
ĠC ook
Ġpay ing
ĠI ll
Ġarrest ed
ĠPr ime
_c allback
> ,Ċ
dr iver
On ce
ab b
_by tes
ĠS ets
( Object
Ġc c
Ġsh ell
al o
); //
( log
2 64
ct ors
) </
Ġneighbor hood
4 20
ail ability
v ol
Ġyou th
Ġtechn iques
ĠS chema
u h
ment e
Ġre pository
im m
Ġcook ie
J S
ov ies
: {
Com plete
S ince
Ġla ugh
_B O
en able
ĠDo es
ĠW alk
wh at
k es
Ġmult ip
im ents
e ur
Ġvict ory
Gener ator
ĠM os
ro vers
Ġcomput e
Ġprovid ers
ĠMed ic
L P
_CON FIG
Ġv eter
st ers
_w indow
umer ic
ĉĉĉĉĉ Ċ
. Response
Ġrepl aced
. root
-f ree
- container
Ġmatch ing
ĠEd itor
= ${
ĠS af
Ġs ind
(b uffer
å ĩ
.ed u
) ];Ċ
ĠN FL
ay a
Ġdog s
Ġdes ire
ĠM iddle
C art
30 6
Th eme
Ġm ob
Ġdisplay ed
ig it
Ġadult s
"" "
Ġdeliver ed
vis ible
": {Ċ
<< <
ĠG O
sc roll
x E
Ġass igned
ĠB ool
Ġw p
Ġcomb at
ĠH aw
. -
Ġsupport ing
.Cont ent
3 45
irc raft
Ġsp in
ĠC R
.m y
à ¥
t pl
Ġsp aces
? ,
38 4
ĠSy ria
Ġpattern s
- box
Ġfr amework
/ %
(l ong
Ġteach ing
ARN ING
_key s
Ġtable s
UN C
in ations
- weight
r adio
ĠP ac
.s erver
.Char Field
r ing
Ġqu ote
ann a
Ġwer den
Ġc ream
Ġmach ines
- k
37 5
Ġst im
ĠSt ock
r ick
Ġimport ance
r x
Ãµ es
Ù Ī
Ġst roke
ag ra
Ġt aste
ĠDE BUG
Th anks
ĠRe quired
ov a
M edia
Ġsi ÄĻ
(b ase
post s
Ġfile Name
Check ed
Ġinter rupt
Ġ( )Ċ
py thon
p air
Ġcirc le
Ġinit i
_st ream
Ġcomp reh
lear n
P ublic
Ġhum ans
Ġbring ing
ograph ic
_l ayer
- like
upport Initialize
ide bar
Ġvot es
Ġdes ired
M ask
Ġrel ation
. Instance
H elp
Ġins pir
ĠMon o
View Model
omet imes
Ġbackground Color
Ġrot ation
Ġm ari
/ test
INS ERT
St ar
ph y
Id s
_G ET
Ġincre ases
_c lose
23 3
_F ORM
Ġ[âĢ¦ ]ĊĊ
az a
TE XT
ĠÃ ¤
ĠV an
Ġl ights
ĠGu ide
Ġd ates
.Com mand
am an
Ġpath s
. edit
ĉ add
d x
Ġre action
ĠBe ach
.get Message
En vironment
inter est
Ġmin ister
Ġread ers
ĉ F
Ġdom estic
Ġfile d
C ity
Ġm apping
ĠD ES
Ġrep air
t ics
ix ture
Ġn ombre
.IS upportInitialize
z o
.Is NullOr
ĠCarol ina
ĠD er
ĠE VENT
Ġg est
Ġh ist
res ources
Ġor phan
.A re
ĠIn vest
REFER RED
.Log ger
ĠR oman
Ġcult ural
fe ature
pt s
b t
Ġd ot
Ġdi am
us pend
_ access
() {čĊ
Ġsurpr ise
ab il
Ġv irt
Ġb omb
ar on
_ IS
Ġv ast
Re al
ep end
ict ed
Ġpick ed
ĠF L
ĠRepublic ans
.z eros
Press ed
s up
.C ore
M icrosoft
s ervices
ag ic
iven ess
Ġp df
Ġro les
40 3
r as
Ġindust rial
Ġfac ilities
24 5
è ¡
Ġn i
Ġb a
Ġcl s
ĉ B
C ustomer
Ġimag ine
Ġex ports
Output Stream
Ġm ad
( de
) {ĊĊ
Ġf ro
h us
Ġcommit tee
ìĿ ´
, x
Ġdiv ision
( client
(j ava
option al
. Equal
ĠPh ys
ing u
0 33
7 20
Ġs ync
ĠN a
}} </
OL UM
it Ã©
Ġident ifier
ow ed
Ġext ent
Ġh ur
V A
cl ar
Ġed ges
C riteria
Ġinde ed
in herit
ĠN ight
30 2
Ġreport ing
Ġen counter
Ġkind s
_p red
Ġconsider ing
. (
Ġprote in
T yp
gr icult
ĠB all
@ Component
ĠE ss
ĠR ub
80 2
ul p
ĠĠĠĠĠĠĠĠĠĠĠĠĠĠĠĠĠĠĠĠĠĠĠĠĠĠĠĠĠĠĠĠ ĠĠĠĠĠĠĠĠ
it ud
. attr
ient e
Ġsp ell
ĠJ oe
ENT ER
_h ost
it an
Ġm atters
Ġemerg ency
u ated
ĠCh at
={ '
contr i
ark er
æĪ Ĳ
ip er
Ġs cheme
(std err
Ġ* (
ce iver
.c olumn
Ġmark ed
_AT TR
Ġb odies
ĠIM PLIED
G ap
ĠP OST
Ġcorpor ate
Ġdim ension
Ġcontr ast
erv iew
ĠERR OR
Ġcap able
Ġadvert ising
urch ase
ĠP A
ĠFranc isco
Ġfac ing
ãĢ Į
g it
Ġbe er
Ġsk y
down load
ĠC ur
m c
ann y
.f loor
Ġc riteria
Ġparse Int
` ,Ċ
Ġas pect
Ġbund le
C ould
Ġt ank
- id
Ġh urt
Ġbroad cast
OK EN
ow nt
null able
C ap
Ġal cohol
ĠC oll
ĠH elper
ĠA f
.m ethod
Ġpl anned
pl er
ĠS ite
Ġres c
om ent
ĠJava Script
S ERVER
Ġr hs
er es
(" ,
if i
.f ields
Ġpark ing
Ġis land
Ġs ister
_ Ċ
Con straints
ĠA ust
d im
_point s
Ġg ap
_ active
Ġvo or
ĠP O
B ag
-s cale
l ambda
.Dis pose
r ule
Ġown ed
ĠMed ical
30 3
ent ries
Ġsol ar
Ġresult ing
Ġest imated
Ġimpro ved
D uration
employ ee
$ .
Action s
L ike
, (
( Request
% s
. Open
) "Ċ
Ġp ixel
Ġad apter
Ġre venue
og ram
ĠL A
ĠM achine
Ġ Ø§
Ġf le
Ġb ike
In sets
Ġdis p
Ġconsist ent
a Ã§Ã£o
g ender
ĠTh ose
per ience
.Back Color
. play
Ġr ush
Ġax ios
Ġne ck
_m em
.P REFERRED
_f irst
C B
ĠW idget
Ġse q
h ar
Ġh its
Ġâ Ĥ¬
Ġcont ained
ri ent
w ater
LO AD
ĠVirgin ia
ĠAr m
Ġ. /
Â »
_ root
Ġass istance
[ ],
s ync
Ġve get
es cape
ic er
bo ost
ĠF loat
- W
*/ čĊ
* >
2 18
Ġ$ (".
.p os
Ġbo ys
Ġwed ding
Ġag ents
=" _
ĠAr my
Ġh int
v ision
Ġte ch
ĠCon nect
Ġleg end
ĠB et
.B ase
Sub ject
Ġl it
Rem ove
Ġ" :
ĠF inal
pear ance
ĠiT unes
Ġparticip ants
ĠPy thon
Ġbus y
i el
vert ices
Ġtemplate Url
ĠC lose
Im g
ĠCorpor ation
t imestamp
Ġext end
Ġwe bsites
Ġposs ibility
Ð¾ ÑĤ
Ġk Ã¶
Ġme at
Ġrepresent ation
24 1
Ġ ĉĉ
_ST ART
.app ly
ĠVal ley
ĠS uccess
H i
Ġn ob
ĠI Enumerable
_ select
ge o
. ")Ċ
Ġturn ing
Ġfab ric
(" ");Ċ
Ġpers pective
é Ĺ
ĠS n
Th ank
; j
.Param eters
ĉ ĠĠĠĠĠĠĠĠĠĠĠ
Ġfact s
30 5
Ġun t
.in stance
################################ ################################
- end
ĠJO IN
ĠH en
Ġur i
åĲ į
ĠÐ½ Ð°
ĠIn fo
Ġconduct ed
ĠÃ ¥
OUR CE
Ġw ine
J ohn
.Error f
ĠA ge
ound ed
Ġreal ize
3 12
Ġ] ;
Ġsub sequ
, m
( User
ian o
Ġaccom pl
is p
.st d
é ĩ
ĠB ed
.set Attribute
B R
ke ep
ĠA LL
Ġis ol
am ma
P ackage
Ġoccas ion
-s uccess
ÐµÐ ´
ĠLIMIT ED
st rip
() ĊĊĊ
istrib ution
Color s
Ġ+ :+
Did Load
al er
Ġt id
ĠL ED
ĠLink ed
ĠC art
() )čĊ
_RE AD
Ġkill ing
ĠP HP
fe ction
Ġinst ances
c v
"/ >
Ġs f
Ġtax es
_ location
ĠBit coin
u able
r ank
ign ore
tr ack
Ðº Ð°
Ġshould n
ĠO P
=> {Ċ
Ġk m
Ġh elper
_ head
ĠWh ether
oc o
_b l
Ġstat istics
Ġbeaut y
Ġto g
t ip
ëĭ ¤
Ġc sv
(s ql
std lib
we ak
Ġlik es
Ä į
Ġrepe at
Ġap artment
Ġem ph
_ edit
Ġv it
ĉ type
2 17
E ven
ut en
Ġcircum stances
b ian
Ġs ugar
W indows
ì ŀ
Ġobs erved
/ data
Ġcal endar
Ġstri ke
ĠR ES
_s c
f ony
ore m
( z
p ower
et ect
ĠS at
.d escription
Ġg ang
ĠS ports
ong s
ĠB undle
.s um
on ce
Ġacc used
Ġexplo re
Ġapprox imately
Ġlos ing
thes is
ĠF und
Ġdi agn
A utowired
prop erties
Ġ_ .
Ġc nt
ced ure
Ġy y
Ġgr ant
so ck
.inner HTML
Ġ] );Ċ
ĠCON FIG
=' $
5 50
] ];Ċ
UN D
Ġg lob
Ġd ire
uff le
_M EM
Ġauth entic
> ("
Ġdec ade
ĠIm port
Ġorigin ally
Ġj Query
Ġindic ate
Ġours elves
S w
.l bl
ener ate
Ġbas ically
ĠH om
Ġ+ #+
ĠBrit ain
ĠK ar
to Equal
.st op
Ġmod al
is i
Ġsuggest s
Ġd type
Ġt ur
b f
Ġconnection s
ĠB efore
ist ed
m ouse
Ġpul led
.b uild
Ġlegis lation
Ġfor th
p ad
eg o
.N ow
Ġexc iting
}ĊĊ ĊĊ
Ġcom pr
Ġsh ares
Ġr ig
g reen
_ vec
Ġenumer ate
A uto
ic ator
ĠR ay
as se
Ġh oliday
Ġnull able
g un
_d etails
Ġwr apper
se q
ĠYou ng
ju ana
Ġ" __
lic ense
ser ve
^ (
id ers
.Rem ove
rop down
' S
p in
(t oken
.D efault
Ġreason able
amp ion
ĠS ociety
Ġbe i
erv es
r ad
ĠF ox
_ images
Ġw heel
') [
Ġc fg
( By
Con structor
Ġv ary
.sw ift
Ġpro xy
ĉ H
ĠAn other
ĠP en
Ġcheck ing
Ġj est
man ager
Or igin
ug s
o ir
>< !--
Ġexpress ed
Ġmod er
Ġag encies
Ġi h
-h idden
ious ly
ĠR od
Ġso le
M ed
.A ny
Ġp c
b al
Ex ample
ĠS ale
Ġst rip
ĠCom p
Ġpresident ial
M ost
put ation
( ref
ĠF our
_f ilename
Ġen forcement
Ø ¯
ĠGe org
we ights
/ l
Ġag gress
Ġd rawing
and y
< I
- j
ak a
h ref
Ġteach ers
_ Q
( it
ĠM B
Ġtemp orary
ire base
str a
æĹ ¶
è ´
( label
ou p
Ġtop ics
Ġport ion
id os
ĠJew ish
Ġre covery
6 50
Ġstand s
# [
Ġafter noon
ĠArt icle
_ att
Ġexpl an
ĠP ak
.setOn ClickListener
. children
Ġi k
+ (
l ag
Ġdis k
Ġcont rovers
"> &
as p
Ġw ie
ĠAustral ian
ĠYou Tube
At tr
cont ains
du ce
ĠM att
3 40
at ern
Ġvol unte
Ġnew sp
V P
olt ip
Ġde legate
_m eta
Ġaccur ate
ĠEx ample
% ,
ĠD aily
Ġc abin
ĠS W
Ġlim its
k ip
Ġar my
Ġend ing
Ġb oss
ĠD ialog
Al so
="# "
ord an
row se
- min
Ġ" &
_ loc
U X
Ġdevelop ers
Ġaccur acy
Ġmaint enance
Ġhe av
Ġfil ters
.T oolStrip
Ġn arr
ĠE mp
ORD ER
ĠM obile
.S erial
.out put
24 4
.c ol
M aterial
um a
Ġconsum ers
sh ift
Ġp ued
Ġmin i
c ollection
Ġk an
.c enter
H istory
Ġben ch
() );
itor ies
Ġcrow d
_c all
Ġpow ers
- E
Ġdis miss
Ġtalk s
ĠCh annel
for ward
_ control
/s rc
i est
**************** ********
Ġbet a
(c olor
_O BJECT
ĠA pi
Ġeffect ively
C amera
s d
uss y
29 0
D ict
ĠE ffect
ib ilities
Ġreturn ing
ĠF ar
Ġ' ')
Ġmod ules
2 19
il ation
Ġ( %
TR GL
Ġst orm
on na
ĠEX P
Ġs pons
Ġdis pl
ĠĠĠĠĠĠĠĠĠĠĠĠĠĠĠĠĠĠĠĠĠĠĠĠĠĠĠĠĠĠĠĠ ĠĠĠĠĠĠĠĠĠĠĠĠĠ
f all
å Į
ign Key
_ US
et rics
Ġhand les
T L
_ amount
ow a
br and
ĠT ool
Ġus ual
. Z
cre ment
ad ium
st ock
Ġserv ing
ĠB on
Ġline ar
ĠT arget
ĠR adio
H L
Sh ader
om atic
ag ues
in ity
d iff
_ iterator
qu ot
Ġ ,Ċ
c allback
Ġsympt oms
[ _
ĠB ul
ĠF eb
und o
_ account
Ġtyp edef
Ð¸ Ñģ
tr as
User Id
ĠP enn
ĠSup reme
} >
user Id
32 7
ĠK im
Ġg a
Ġart ists
å ¸
ĠAb stract
ok emon
Ġh am
o val
Ġch a
at en
å Ĩ
F ixed
Ġvul ner
ĠParam eters
qu antity
.C lear
Servlet Request
Ġy a
Ġsou l
0 80
trans action
Ġsol o
Ġp airs
æ Ķ
ĠG re
_ word
ĠC C
Ġg i
z ie
Ġsched uled
rot ation
gy pt
ul ous
:: _
ĠE ll
< !
ĉĉ ĠĠ
l p
ah a
C opyright
00 9
Ġdr am
25 1
Ġdi agram
ĠM em
Ġg arden
Com p
Ġattempt s
uff ix
> ()
Ġphil osoph
_re l
å ¼
Ġs v
.se cond
ant o
.J son
ĠTe le
_ local
_s end
Ġas pects
ì Ĺ
IB LE
Ġr ail
Ġwid ely
ash ed
i ar
in f
up per
d jango
_result s
iss ing
Ġequ ivalent
OUN D
Ġt y
Ġpotential ly
Advertis ement
23 8
ĠRec ord
3 80
resent ation
_w idget
ound ing
Ġrelig ion
Ġcons c
ĠL im
. am
H tml
Ġ' :
P ATH
_s pec
ort ed
id ades
_sh ape
Ġkeep s
.S ave
ĠL oc
or i
ĠT EST
unic ip
Ġreg ions
Ġbelie ves
/ en
pos ite
{ '
pre pare
_ const
s ample
ĠWill iams
Ġstr t
_ Get
ĠAnd rew
. active
Ġl ayers
Visual Style
az y
ĠK n
Ġac id
ĠAs ia
Ġex cess
ĉm y
Ġkey board
ens us
Ġcre w
Ġmiss ed
m aster
ĠW ild
Ġnew ly
Ġwin ner
Ġst ub
ic ode
.m ove
D omain
ĠS ar
Ġfore st
LE D
claim er
.ex it
ĠW indow
Ġres istance
ĠC HECK
(" -
ĠR yan
Ġp ipe
Ġco ast
DE F
// !
_ off
ex it
Ġult imately
imit ive
ĠKe ep
Ġhistor ical
Ġany way
ĠJack son
ock er
ER N
ĠU INT
y ntax
ER Y
is ms
Ġc n
Ġocc urs
Ġ; ;
Text View
A E
/ img
Ġy esterday
- default
Ġt iny
Ġpro c
Ġal ive
ĠRE G
. th
ear ing
.get Logger
< link
_ login
F older
ab c
lyph icon
Ð½ Ð¾
Ġnot iced
od igo
Ġed ition
im ator
. Enabled
.parse Int
Ġy ards
ĉĉĉĉĉĉĉĉ ĉĉĉĉ
Ġver bose
Ð» Ñı
_B Y
.log in
.* ;Ċ
ĠM id
Ã© es
Ġg lo
Ġbuild ings
Ġz e
ĠI ter
Ġt ube
ĠP ot
\ M
25 3
< th
br idge
ĠS cript
ĠM odule
Ġv acc
Ġinstall ation
v y
VisualStyle BackColor
ĠS M
.t otal
64 0
b at
Ġfind s
Ġat mos
Sub view
iz ard
Ġrepl acement
lic ated
ap is
Ġlog ged
ĠLe ft
G ui
_ Type
t m
P ad
Ġhouse hold
Ġre le
Ġpropos al
_CL ASS
24 3
:: ::
Ġinf rastructure
In ject
/ html
22 6
Ġad s
iz za
Ġm g
ctr ine
% Ċ
< html
- image
Ġatt orney
< m
(' ,
Ġcan n
Ġprint ln
o ose
Ġy ellow
.ex p
p ayment
Ġtable View
aw ay
Ġopp osition
ĠAg ain
ĠH andle
Ġex clusive
in ar
Ã© r
Ð¾Ð ±
ĠC ODE
emp orary
Ġre act
pi pe
23 6
c z
. activity
Ġlarg ely
Ġdis s
ax y
es is
ĠR en
Ġc orn
.Use VisualStyleBackColor
d ays
Ġfr uit
In sert
_ enc
E st
_de c
ĠL uc
ĠÃ¼ ber
param eters
P ERT
ex press
_pro file
Un known
Ġrev olution
.add ress
_re quire
Ġun iform
ĠP ack
l ar
ĠU ITableView
Ġdep ends
Valid ation
conf irm
O wner
Ġt rib
h et
ĠI de
ans as
24 7
L anguage
u et
ĠP o
ĠSte ve
Ġcont est
_DE FAULT
Ġapparent ly
RE EN
Ġfrequ ently
Ġtrad ition
ocol ate
S I
ĠArg ument
F ocus
ert e
ĠL ayout
Ġd x
Ġgener ator
ĠW ait
P olicy
l ights
.Ex ecute
55 5
P y
Ġbed room
ed a
ra id
ĉs ize
Ġan cient
Ġp ump
Ġd w
Ġ(! (
Ġspec ify
( status
ĠF BI
.ex ception
Ġrem ark
ly mp
ant ee
Up load
ern et
é ¡
in ent
ĠR ender
d m
ĠM emory
r ich
ĠT ools
Ġk ne
Ġper m
b ad
Ġd inner
.res et
Ġj Label
Fe ature
.S ervice
Ġ( {Ċ
Ġre ferred
.class List
24 8
Ġinit With
ĠText View
Ġne ither
Ġcount y
Ġ" {
ç §
Ġt ack
class Name
ĠUS ER
Ġre new
` `
get Name
Ġb rown
Err ors
ert o
Ġsust ain
S O
let es
ĠIn valid
24 6
22 7
Ġen emies
un ge
Ġexist ence
err a
Ċ ĠĠĊ
utor ial
# a
p ay
char ge
ĠI re
ate st
Ġexp los
Ġf ired
N ER
ĠT y
ic ion
U ri
Ġobvious ly
ĠC olum
Ġ' +
ĠDe vice
- related
_ ARG
Ġv or
ĠLess er
_O P
Serial izer
Ġup grade
L ight
Ġc odes
++ ;čĊ
Ġwrit es
fo od
ĠÃ© t
@ section
Ġtrack s
Ġserious ly
ch t
4 30
(size of
Ġimmedi ate
Ġscient ists
Ġ{ $
_ ne
.Anchor Styles
Ġaccom mod
ĠHar ry
Ġs ight
ĠPale st
ersist ent
Ġ Ñĥ
- input
Ġco ordinates
Â ·
22 8
W elcome
.con f
Ġgre w
Ġb old
ĠC PU
(m y
Ġperfect ly
Ġmom ents
ĠM ovie
- data
yst al
_W IDTH
26 2
ĠS creen
æ Ŀ
Ġdis ap
Ġredu ction
.Get Component
_M ODULE
Ġgener ic
Ġd y
all er
Ġc url
ĠB ody
Ġb anks
, t
av g
Ġev il
Ġmanufact urer
Ġrece iver
Column s
Ġing redients
ĉ out
qu es
.L oad
Ġslow ly
ĠT own
ĠC ell
_n ormal
_p refix
ĠAl ert
(" {
Ã¤ r
âĢľ The
ĠM D
Ġcour ses
ath an
é Ļ
oc c
ĠS ER
es ign
Add r
= ['
(" ./
] }
.f ont
ĠInst agram
ĠB order
od a
Ġh all
Ġr um
_b it
Ġs aving
_d own
R andom
_reg ister
( Context
Ġoppos ite
R oom
Y ES
Ð°Ð½ Ð¸
Ġenjoy ed
_r un
C lear
âĢ ĺ
ĠF ord
on ic
ost en
"] )
_ auth
// čĊ
Ġsuff icient
LE S
Ġph en
Ġo h
_c sv
Ġrout ine
.Are Equal
ay lor
Ġb asket
_COM M
rypt ed
S im
ĠSh op
Ġstud io
at os
( W
[ string
Ã¤ t
og a
Ġsh r
Ġs ick
An other
Ġdo ors
_N E
ĠTH REE
. order
raz il
Ġmap s
_TR UE
trans late
Ġnear by
26 5
Ġn ach
LO AT
b atch
22 9
Ġl ux
ash es
ang ers
âĢ¦ âĢ¦
_E VENT
_ UP
Ġact s
in v
_M ETHOD
cc ion
Ġret ain
ut ch
ĠÐ ±
Ġknow ing
Ġrepresent ing
N OT
p ng
Con tract
Ġtr ick
ĠE dition
uplic ate
Ġcontrol led
c fg
j avascript
Ġmil k
Wh ite
Se quence
aw a
Ġdiscuss ed
50 1
ĠB ush
ĠY ES
.f actory
t ags
Ġt act
Ġs id
$ $
ĠE num
27 5
Ġfr ames
} );
Ġreg ul
'] ;čĊ
Reg ion
32 1
ff f
Ġc ro
( com
=" +
St udent
Ġdis appoint
RES ULT
Count er
Ġbut ter
ĠH a
ĠD igital
Ġb id
"> {{
ing ers
ĠC ountry
_t pl
"] )Ċ
/ k
d ating
: #
ĠD ATA
yn chron
_b ody
olly wood
Ġval or
ip ient
o ft
UB L
doc s
Ġsyn chron
Ġform ed
ru ption
Ġlist a
Request Mapping
Ġvill age
Ġkn ock
oc s
" {
_fl ags
Ġtrans actions
Ġhab it
ĠJ e
ed en
Ġa ircraft
ir k
ĠA B
Ġfair ly
. inter
.A ct
Ġinstr ument
remove Class
.com mand
Ñ ī
ĉm em
( min
Ġo t
Ġcol le
= s
time out
Ġid s
ĠM atch
ij n
z ero
4 10
Ġnetwork s
.g ov
Ġint el
Ġsection s
out ine
(c md
(d ir
ĠLI ABILITY
ĠB log
Ġbr idge
30 8
ĠC V
con vert
Ġ" )Ċ
ĠB ern
_P O
e val
( set
to ol
Ġpay ments
Beh aviour
Ġcon crete
Ġel ig
Ġacc eler
Ġh ole
_ o
TE GER
Ġgraph ics
O wn
Form atter
on der
Ġpack ages
/ a
ĠK now
Or Default
Ġdut y
W ait
Ð½ Ð°
_rec ord
[ t
M esh
Ġon going
.be ans
Ġt an
Ġinter pret
ast ers
QU AL
Ġleg s
\ Request
- file
_m utex
ĠS aint
// #
Ġpro hib
( info
: =
lin ux
Ġb lo
ot ic
ĉf inal
_ex p
ĠSt op
ap ing
(s aved
_p ush
Ġe ase
_F R
pons ive
str cmp
: ĊĊĊĊ
ä» ¶
ol i
Ġextrem e
Ġprof essor
Im ages
.IO Exception
Ġaddress es
plement ed
Ġincor por
Ġuse Effect
_O F
ĠD a
n ombre
IR ST
Ġdisc rim
Ġcomp ens
greg ate
anc ell
ach es
ĠC riteria
$ result
D estroy
Ġsecond ary
W atch
ĠS em
ĠMc C
Ġacad emic
U pper
:: ~
ut ral
ĠD og
ad ed
23 7
Valid ator
Ġder ived
Ġset Timeout
ĠK en
Ġtyp ical
ĠB ob
Ġb ounds
ĠSe ason
Ġc razy
ĠĠĠĠĠĠĠĠĠĠĠĠĠĠĠĠĠĠĠĠĠĠĠĠĠĠĠĠĠĠĠĠ ĠĠĠĠĠĠĠĠĠĠ
-r outer
itt est
ĠM ir
Ġemot ional
, v
c n
/ st
å ½
on om
Ġdecl ared
> .
ail ing
Ġ/* <<<
Ġnorm ally
(M e
ev in
lik ely
Ġpoint ed
ĠSt ack
Ġw alls
. Vector
me an
] ]Ċ
Ġlist ening
ad v
Ġsw ap
IF T
Ø ª
. argv
ul s
< option
not ations
Ġemail s
ĠU kr
ast a
ĠTh us
ĠSt one
Ġappe al
. âĢĻ
Ġreg ulations
Pre ferences
ĠPh one
ul f
ĠD R
Ġtechn ologies
Ġpar agraph
Ġnecess arily
37 0
0 30
.e ach
< float
res a
Ġunder st
Ġf inger
press ed
-b y
if fer
w atch
ĠB a
A IM
Ġwe ights
ĠR on
') }}
[ self
-------- --Ċ
per iment
Ġto String
x ic
ĠC amera
! ĊĊĊĊ
aur ant
P refix
Ġinstit utions
: int
Ġex posure
p attern
ĠLin ux
.n umber
red ient
Argument Exception
ĠCh ief
" },
Ġelect ronic
r ong
er d
sp Net
ra it
/ ',
ĠOh io
Cont rollers
Ġcontin uing
ĠT emplate
ĠE th
s z
/ env
En v
% .
art ers
) ((
ĠT ABLE
ĠÃ ®
per ature
pro gress
P res
ê °
im plementation
Ġb ien
Ġstre ets
_M SG
New s
## #
: /
Ġcut ting
x B
ress ed
_EN ABLE
l ab
Ġca using
] ));Ċ
b ra
x FFFF
il ly
plet ion
w ill
_b ar
Ġstruct ures
ĠI mp
Û Į
Ġ< >
Ġ ----------------
_B UFFER
.d ir
Ġpl ain
Ġpe er
24 9
g g
oint s
Ġsomew hat
Ġw et
Ġemploy ment
Ġtick ets
ir ms
Ġt uple
s is
$ sql
r ig
Ġcon version
Ġg es
Ġconfig ure
eg r
ĠC a
Ġ__ ('
ou ston
.t oken
Bl ack
Ġmag azine
A W
. IN
os ing
Ġbro ke
ĠC ru
DE LETE
Ġdestroy ed
(M ath
Ġappro val
-d om
ĠI II
table View
Ġdesign s
Ġcrush ing
Ġcons ent
dir name
om p
Ġc rypt
? (
or ough
30 7
. o
ĉ list
ams ung
."" "Ċ
err ing
G oogle
_p air
_IN IT
rem arks
Ġg ear
F ill
l ife
} ")Ċ
Ġsuit able
Ġsurpr ised
_RE QUEST
Ġman ifest
att en
Ġfr ustr
ov ement
.c lick
Ġi i
Ġexp ansion
ig s
P arse
.Reg ular
R ob
_l ayout
ì ł
Ġtrans lation
ĠBe aut
B est
_C OLOR
< label
Ġliqu id
IT S
Ġpro d
23 9
Ġoper ate
UI Kit
Ġn atur
arg ument
_d etail
ĠCent re
Ġ" --
Ġ}} "
lo cale
.t v
_se q
Ġup coming
Ch art
ĠDiv ision
Ġclin ical
Com pany
S epar
l as
ĠH un
: s
Ġhead ing
Ð¾Ð ³
Ġ" ");Ċ
[ id
b ia
Ġst retch
ic ide
Ġre produ
.pro ject
leg end
end ers
Ġrespons es
Ġon t
rit ical
Ġref uge
ĠL i
Ġ: ĊĊ
ĠTh ree
.cont roller
_IN DEX
_F OR
\Model s
j ax
ĉex it
Ġâ ĸ
Ġc overs
ĉ y
- .
IND OW
Ġfail s
in cludes
Ġf ault
4 40
Ġl y
44 4
Ã± o
.s lice
ILE D
ĠP ur
ĠAs ian
_b atch
.M ax
v l
ĠCOPY RIGHT
Ġg iant
ĠMan ual
ĠC opy
Class Name
He alth
C ursor
IB Outlet
Ġt we
æ ³
_label s
Ġcol lected
Ġfurn iture
Ġdeal ing
Control s
ĠHot el
ck s
Ġch ose
âĶ Ģ
od d
S R
Ù Ĭ
ì Ħ
Ġacc ord
ĠM ove
ĠM ode
ĠM ock
Ġthread s
++ ++
ĠO ptions
Ref resh
ĠD id
'] ->
u cc
_ch annel
. abs
Ġ{ },Ċ
ĠW al
er ior
Ġmain ly
ĠDr iver
NotFound Exception
Ġcount s
e am
Ġ& =
Q uestion
ĠA li
Ġany more
d etail
t ail
Ġm ile
ĠF air
Ġs orry
Ġsurround ing
Ġad m
De v
Ġmari juana
ĠS ound
ĠA sh
F D
Te am
. port
Ġ[ ]ĊĊ
ub ble
Ġas c
Ġint ention
A cc
ch i
ust ers
Ġins pired
se g
CL U
Ġman ip
M etadata
Con nect
ĠB eh
Ġfind ings
Ġas sembly
w orld
Ġrem ained
Ġu id
( .
Ġm x
Lo op
ĊĊĊĊ Ċ
Ġfant astic
wh o
ak i
ĠB asic
ĠY et
ĠUs ers
ik ip
Ġhead s
ĠMich igan
_ it
ĠTor onto
Ġrec ording
Ġsub mitted
_var iable
medi ate
.graph ics
Ġst ood
Ġre ar
vel ocity
_M ESSAGE
ĠĠĠĠĠĠĠĠĠĠĠĠĠĠĠĠĠĠĠĠĠĠĠĠĠĠĠĠĠĠĠĠ ĠĠĠĠĠĠĠĠĠĠĠĠĠĠĠĠĠĠĠĠĠĠĠĠĠĠĠĠĠĠĠĠĠĠĠĠĠĠĠĠĠĠĠ
ro les
ĠT our
_ year
end ment
amp s
ĠIre land
m al
Ġyoung er
Ġstrugg le
Ġc able
ĠSD L
(' -
an es
ĠNe ed
.R ow
P ol
ĠP H
_s cript
ag em
ĠB as
_s pace
. loc
: i
ad r
Ġengine ering
it en
) &
Ġu k
ĠL ittle
_C OUNT
x A
Array List
æ į
Ġ" ")Ċ
An chor
Ġh ang
t witter
Ġcompet itive
.s rc
ãģ Ĺ
Ġtrans late
ĠCre ates
ook s
ĠR oll
'' 'Ċ
/ sh
s ome
Enc oding
.res olve
Ġdesign er
ĠSt orage
Ġz a
ĠN ever
Ġsomew here
Ġbox es
.s ource
Ġpy game
Ġgrow n
.t w
() ),Ċ
', ['
Ġoppon ent
(s rc
.l ayer
AP P
ĠAct iv
Ġguest s
ĠVAL UES
};ĊĊ Ċ
.n ative
Ġamount s
. RE
Ġcl one
Ġwer en
Ġ" <<
_ ac
Ġbreak ing
Ġreli able
.P OST
ĠSk y
Ġ' &
Ġsaved InstanceState
ast ing
ill ion
com ments
ult y
.m enu
/ config
Ġ ĊĊĊ
T ODO
Ġpurch ased
_c or
ĉ auto
Compat Activity
com plete
_ graph
is odes
Ġsitu ations
ĠH or
Re ceive
âĢľ We
Ġent ities
.assert Equals
Ð¾Ð º
ĠS ans
v ince
rom pt
= Ċ
Ġ/ .
.Se lect
yl v
Ġb att
A udio
Ġincreasing ly
.B undle
Ġexpl ains
0 60
the ast
. offset
Ġh al
Ġtechn ique
_l imit
Ġdraw n
AY ER
Ġfeature d
yy yy
at in
ph en
ach el
! \
l ower
ĠG R
Ġp ag
ĠP arse
Ġt ou
ä¸ Ģ
D istance
Index Path
Ġh ell
s im
UT TON
Us age
elen ium
ĠF all
Ġ" .$
ĠM u
Ġcr uc
Ġs ont
REF IX
3 11
Ġinter ior
ĠO lymp
.Auto Scale
par a
Axis Alignment
Ġr iver
D to
Ġwith draw
Re act
- class
b efore
_ alloc
Cont ents
ĠW as
I CT
Ġform ula
Ġindic ates
ĠĠĠĠ ĊĊ
_st ore
it ting
ĠIt alian
_S et
_re port
Ġp id
_V ER
Ġw ins
ĠCl oud
") {Ċ
ch ester
Ġden ied
Ġw ird
ĠSte p
Ġinvest ors
b old
_d isplay
ou ver
or er
Res et
Ġsurg ery
Ġstrateg ies
/m aterial
_ unit
Ġc ouncil
.P er
ĠâĢ ŀ
Ġre form
F ramework
Ġlist ing
_b tn
Ġb is
% d
eg as
Ġsudden ly
_S ER
3 15
Ġa o
_d irectory
f as
Ġprem ium
Ġtrack ing
ĠB L
Ġm ature
Ġbath room
Ġ'/ '
ĠÄ ĳ
Per formed
Ġsold iers
arn ings
Ġwalk ed
- con
b ottom
Ġsurpr ising
Ġg ene
Us uario
.DE FAULT
ĠM IT
C ODE
ĠE gypt
p icker
ys ql
AT URE
d etails
ĠCon ference
In formation
ĠM ail
-d own
r aries
b ro
Ġsubject s
Ġ' *
è¯ ·
or ient
: @
ver bose
E F
Ġto ler
3 13
eng ers
Ġend point
Ġstr ange
Ġcol on
Ġpre ferred
de p
ĠE V
ARR AY
Ġw he
Ġp up
_n odes
Ġtalk ed
Ġinstit ution
db c
Ġex posed
te en
ĠFr ont
T T
_N ONE
\/ \/
pro gram
Ġencour age
. `
sh ire
ĠIsl am
32 5
e en
N I
' "
.W idth
Ġlik ed
Ġ{ ...
ĠSystem s
Ġvot re
Ġmanufact uring
Con verter
ĠIn f
ì ļ
D TO
Ġin ches
Ġ à¤
Ã ¹
ĠChar les
B U
")) ;ĊĊ
ĠL abor
un n
Ġest im
m obile
ĠL earn
28 1
_C ALL
â Ħ
Ġind ices
Ġt ub
28 8
ikip edia
C ost
row able
ë ¡
g age
Ġfunction ality
uzz le
em os
.l ib
Ġd ass
ÐµÐ º
enn a
Ġsh ots
Ġrest ore
/ D
For Key
], [
al ias
l int
.st ream
æ ł
_FORM AT
Ġsil ver
.re pository
Ġlegis l
.B order
_fe atures
Per mission
Ġhous es
ĠW ars
_COM P
Ġinj uries
Ġconstant ly
fl utter
EN U
ĠCon f
Ġrecogn ized
Ġpract ical
Ġde cent
B J
] );
ast y
ĠAct ivity
-m ode
Ġsl ide
.IsNullOr Empty
ĠY OU
P ower
ind ices
Ġqual ified
Ġthrow n
h ello
3 16
ĠN ick
l ah
as sembly
ĠSm all
old ing
Sh ould
ĠSil ver
(saved InstanceState
Ġtog gle
.N ot
C trl
: nil
ĠCont inue
ĠB oot
æ ī
ĠM ur
d on
ĠF A
S napshot
Ġassoci ation
fo x
, a
az ione
] )čĊ
CT YPE
Ġf ade
ĠD ar
.n avigation
Ġl uck
SC RI
ĠDe ad
Ġterm inal
_LE NGTH
Ġeff iciency
Ġun w
Ġn arrow
iment o
( Color
ĠSe a
_ area
, A
_ opt
ĠHill ary
.t ask
ĠJ ac
ast ed
ĠAd am
ĠIl legal
Ġsearch ing
Instance Of
J ava
ĠForm at
Ġreal ized
ĠChild ren
Ġk il
(f rame
âĢĿ .ĊĊ
Ġscen ario
"] );Ċ
Ġincred ible
li x
IO Exception
ĠQ uest
il ty
Ġun lock
â Ĥ¬
Ġre ferences
ĠV ert
B inding
eg ative
Ġwr ap
.d atabase
( content
B uf
ĠTr ad
ĠA ud
tr ace
.m ock
Ġther apy
ĉ L
.To Int
ĠKing dom
B us
ha ust
"" "ĊĊ
( end
.draw able
[ ];Ċ
ĠH ospital
Ġph arm
---- -
ĠA G
Ã© d
> ");Ċ
Ġw allet
at able
) $
Ġmonth ly
Ġdi agnostic
S ymbol
Ġiter ator
un finished
Ġimm igration
s r
RO W
(g ame
Ġclo thes
ĠU nt
Ġactiv ation
_C on
27 3
.h ash
Ġinitial ly
.H ash
Ġcut s
f ound
ĠSt ory
ÑĨ Ð¸
ac ao
_T YP
pro to
est r
-p age
ah r
Ġincor rect
ĠJose ph
TextBox Column
_st yle
ĠD aniel
s heet
Ġl iv
l ined
Ġr a
R untime
_ empty
sl ug
_ struct
ë Ĭ
m u
Ġper mitted
Ġreg ional
Ġsob re
ĠS uch
Ġ[ _
Ġro of
.Al ignment
t imes
.m sg
Ġche st
ĠT ab
Ġest a
Ã¤ n
Ġsubs cription
( command
s pecial
Ġme al
") :Ċ
_ ctx
Ġclos ely
30 9
et ry
- be
ad el
ĠR am
ig est
ĠSpan ish
Ġcommit ment
Ġw ake
* >(
P HP
_ {
ck er
< List
_n ull
3 90
ĠRes erved
Ġin her
.Column s
.A spNet
_IN VALID
ĠParam eter
Ġex pr
} {
Cell Style
Ġval uable
Ġfun ny
In v
Ġst able
* t
Ġp ill
2 99
pl iers
ĠC SS
ĠCon dition
ĠS peed
ublish er
25 9
Ġoff ensive
ce st
ic as
Ġsp ark
ĠPro te
set up
IF Y
ĠT ax
Wh o
F amily
- for
. uk
Ġf asc
sv g
") ).
Ġbirth day
âĸ Ī
ve h
el led
Ġimport s
ĠIsl amic
T A
ĠSt an
we ather
Ġsus pect
e ature
enn es
W M
.m inecraft
av id
è ½
.se curity
in os
G ood
Ġm arch
6 55
25 7
Ġposs ess
us uario
Con s
am ber
ched uler
Ġhor se
ç ½
(b ody
ĠTrans form
_de code
.s vg
Ġf oo
Ġd ella
ext ends
am er
Ġprocess ed
ĠH arr
ĠA I
Ġk o
CH AR
( %
Ġt ap
({ '
c roll
D OM
Ġte a
Ġre in
26 1
Ġworld wide
_f n
sh a
Ġb ir
Ã§ Ãµes
="# ">
Ġrepresent ed
ill er
(ex pected
Ġd ance
Ġvisit ors
.con cat
-b it
UR RE
ĠR og
v p
ip h
ĠL LC
it led
iam i
C oll
_re al
_sh ow
_f older
Ġd ar
ĠĠĠĠĠĠĠĠĠĠĠĠĠĠĠĠĠĠĠĠĠĠĠĠĠĠĠĠĠĠĠĠ ĠĠĠĠĠĠĠĠĠĠĠĠĠĠĠĠĠĠĠĠĠĠĠĠĠĠĠĠĠĠĠ
Ġl atter
arch y
Ġb ow
Ġout come
5 10
ĠPost ed
Ġris ks
ĠThere fore
Ġowners hip
Ġpar allel
Ġp ending
ge ometry
Ġrecogn ize
ST EM
ĠC P
Ġimm igr
IT LE
ĠĠĠĠ ĉĉ
conn ected
Ġsm ile
(d ocument
\ Component
vert ical
Ġconsum ption
Ġsh oes
. impl
un ks
. ";Ċ
Ġfood s
_ );Ċ
.assert True
Ġp ipeline
Ġcollection s
Ġearn ed
ĠC ert
Ġpartners hip
( action
26 3
Ġc d
ĠV ery
Option al
Ġscre ens
Ġtit les
ener ator
Ġab andon
k ind
IL TER
Ġclos ing
lic a
_ inter
Ġcamp us
set ting
S prite
ãģ ¯
_re ply
To List
: \/\/
ed e
Ġfol ks
Ġbo at
( argv
Ġperman ent
Ġcarry ing
Ġconserv ative
import ant
. img
ĠIm m
Ġdim ensions
al and
s ingle
Ex it
-------- --
ari ant
tern al
Se conds
ĠIt aly
ot lin
.Res ume
=' "
) ==
cept or
Ġs ca
/m ain
Sec urity
_d at
Ġlet s
Ġa qu
Ġwhen ever
b erry
Ġact ing
ant i
p d
& gt
æ Ń
Z one
T oday
! .
32 3
To Props
ab is
it able
Ġg al
] {
iz ona
Ġin contri
N ET
/// Ċ
[ in
_s ave
Ġex em
ĠK enn
Ġev olution
27 2
var s
_st ats
- only
ĠColor ado
Ġwatch ed
b our
Ġsever e
Ġprofession als
port ion
Ġguar ante
Ð ³
Ġpush ed
ĠG i
ï ½
Ġt um
ĠA z
ĠEdge Insets
")) ;čĊ
is se
. ac
Set ting
Ġapprec iate
ĠValue Error
Ġsur ve
ĠR ole
. Inter
plot lib
j et
d am
Ġplatform s
te le
UT O
ĠInt ernal
+ :
} ;čĊ
Gener al
\ Entity
Ġlawy er
qu iv
ĠPost s
is o
Ġacc um
ob e
Ġmark s
Ġ] ;ĊĊ
ĉ text
.s uccess
cur r
as a
ĠĠĠĠĠĠĠĠĠĠĠĠĠĠĠĠĠĠĠĠĠĠĠĠĠĠĠĠĠĠĠĠ ĠĠĠĠĠĠĠĠĠĠĠĠ
Ġth in
_ over
0 16
are st
ĠO s
( address
Ġvel ocity
Ġ[] ;ĊĊ
=" ../../
ĠPr iv
b ow
Ġguar antee
% ĊĊ
32 2
Ġeval uate
.LE NGTH
Ġin ventory
q a
_de bug
.On ClickListener
Ġl ies
Ġassess ment
dat etime
.background Color
Ġ*/ čĊčĊ
ra f
un wrap
ĠF oot
Ġnot ify
Ġlow est
DO CTYPE
Ġl anguages
ex tra
- back
Ġein en
tem plates
27 1
_p ass
5 20
77 7
ĠM ust
Ġest Ã¡
_c ore
ĠSc ot
A I
Ġb ias
ations hip
Con stant
Ġprogram ming
In s
uspend Layout
ĠPRO VID
ant es
Ġsh irt
in ated
. OK
[ a
Ġthink s
? ĊĊĊĊ
Ġregard less
ĠMag ic
ul ating
ĉ class
add Group
RE ATE
ĠS U
Ġsim pl
c opyright
Ġb unch
Ġun iverse
9 50
ĠE rr
Ġpresent ation
c ategories
Ġatt ach
.s ign
_A C
Ġdisc ipl
Ġregular ly
Ġprim arily
ink s
[ [
.r and
.sh ould
ownt own
=" '
Ġs ans
Ġsupport ers
se quence
G O
. .ĊĊ
ĠS pr
Ġcare fully
U IColor
dest roy
Ġtod os
ĠOR DER
ott ed
Ġd ont
aud i
_ player
g re
6 25
ĠO il
< body
_st ack
.P adding
ĠProduct s
Ġpriv ile
0 14
Ġinj ured
ĠF urther
Ġal ias
.Resume Layout
_LE N
Ġs es
'] ;ĊĊ
cre ens
Ġdirect ed
.S uspendLayout
od ge
.A t
mark s
ĠUn ivers
ert s
ĠE sc
Ġnav bar
Ġutil ity
agnost ics
Ġin ject
ĠD NA
Ġ" ,"
am ar
Ġe u
Ġrestaur ants
_p ut
ut ers
Tool Strip
t w
ist ro
Ġz oom
Ġleg it
pec ific
28 5
ĠC ome
Ġlocal Storage
Ġabs or
.P anel
ĠDesign er
Ġo w
IC AL
_ uri
(f ield
Ġsup erv
Ex ists
Ġrespect ively
ĠSt and
Con f
uss ian
3 64
Ġar c
Ġ nd
uck s
Ġre str
Ġseason s
ĠCh apter
ĠSw itch
p ic
Ġh i
load ed
Ġfl uid
-b tn
Ġrun time
. it
25 8
B N
Op acity
as ant
ry ption
-n ative
Ġta ught
å ¯
ag ment
Ġm ul
Reg istry
_ grid
ĠBro ok
: Set
Ġm ongoose
AM ES
inner HTML
Ġs oci
ĠInt el
get Id
C md
Ġaccess ible
r ames
le ton
Ġ__ (
ĉ delete
ĠS quare
" ĊĊĊ
Ġbu cket
avor ite
ĠB reak
++ ]
Ġbr ush
26 6
Ġt ensor
/ http
T ile
Ġfunction al
Ġ" *
wh el
Ġt ent
ĠChar acter
Ġse es
. ST
B ig
Ġext ern
Url s
)) )),
ĠJ r
.B uilder
. ;
n l
_ Init
ĠH ER
Å¼ e
mys qli
_ icon
v an
Ġfeel ings
Ġle an
Ġhop ing
T V
="<? =
Ġcur ve
_st d
_L INE
d st
Ġmor al
em es
og y
Ġur ban
0 15
Ġas ide
Ġedit ing
AD D
Se cond
Tr ack
Ġvot ing
Ġhon or
. ',
ell en
Ch at
Ġimpro vement
'] ĊĊ
ł ģ
Ġpars ed
ĠĠĠĠĠĠĠĠĠ Ċ
Ġla zy
Ġfall ing
Serial ize
ĠP a
_ gr
Ġfore ver
. white
. Query
B ed
ĠD u
Ġres ume
Ġp apers
ĠIn it
Ġsuffer ing
âĢ ĭ
Ġdeclar ations
() -
Ġexec uted
ĠH ol
.b lock
ãĥ ³
S K
Ġst uck
ĠL ock
incip al
Null able
Ġs essions
un i
Ġcou p
app ro
gh an
_p ool
28 3
ĉ id
Ġsl ots
Ġmedic ine
Ġgl ad
ĠMono Behaviour
at re
Ġ$ ('
meric an
ag g
Ġk ann
_con nect
Ġbr ands
Ġs ke
Ġdig it
< n
Ġback up
Ġperson ally
.P roperty
3 14
.com mit
Ġc ry
_count er
Ġm alloc
Ġgr an
ĠD rop
pl atform
red entials
ink ing
ĠU IL
ub s
Ġm l
less ly
Gener ated
ere otype
Ġb at
Layout Panel
LO T
");čĊ čĊ
Ġmus cle
Ġcert ificate
AND LE
Ġhard er
Ġp ixels
) ",Ċ
. Header
Ġdevelop er
ĠL as
eg an
. <
Ġexpl ode
Ġparticip ate
P attern
(t able
ĠT EXT
const ants
x D
th ew
}, ĊĊ
ãģ ®
_d es
Ġsub str
ĠSm art
Ġsc ala
g ent
-b ar
ession al
um bs
.ex ec
' \
T K
un ist
pro of
c ial
pro c
={ "
.h ref
=$ (
Ġl unch
isc al
ĠEn try
Ġout door
sem ble
Ġessential ly
/ G
[] )
% "
st en
USE D
Ġd ust
å °
ĉ ĊĊ
Ġret ire
Ġf ib
Al though
Ġlo ves
Ġread s
yc les
ĠH el
_ uint
Ġ' .$
_in itial
N amed
Ġfundament al
AD ING
Ġto w
ĠA DD
ĠAcad emy
0 50
: String
Ġcompreh ensive
.s cal
ĠM eta
M essages
.annot ations
\ Response
Ġacknow led
ĠA RE
] ==
Ġclean ing
è ¾
Ent ities
ĠS ales
ĠW is
.ext end
all enge
Ġg aming
$ query
IC ES
ET CH
H orizontal
qu ential
8 50
B ACK
de velop
is or
(c ode
- K
_P IN
requ ency
ĠQ uestion
_ container
_mod ules
ĠJer sey
_d iff
. el
Ġ* ((
c nt
ĠS a
C PP
in ite
Ġun us
- white
et ary
Ġinvol ving
Ġ? >čĊ
b est
all as
ent ed
ĠĠĠĠĠĠĠĠĠĠĠĠĠĠĠĠ ĠĠĠĠĠĠĠĠĊ
_con nection
Ġrep o
en abled
Ð°Ð º
Ġsh a
Ġmembers hip
Status Code
in ating
_s m
_c ustom
_ weight
Ġc ss
St at
_ env
link s
TR L
ĠH it
, r
up id
Ġop ens
Ġg ent
_v is
Ġj oy
< w
_c ost
ĠPy Object
ren ce
ĠGeorg ia
ĠBro ad
m ma
â Ĥ
p f
Ġ" \"
Ġ( &
om o
Ġliter ally
Ī ĺ
met ric
Ġb ars
z ed
(w indow
ĠIsrael i
Ġform al
ident ifier
.d ao
ĠDe ath
% ;Ċ
Ġdecl are
ar ms
RE AM
PERT Y
Ġconsequ ences
to ols
Pe ople
ĠWh ich
> ();čĊ
.de code
_A CT
Button s
.f loat
.F irst
ë ¥
ĠPol it
ĠX CT
T ags
ĠCG Float
= str
Ġle af
- check
ĠI ss
.s ystem
log out
ach t
Ang le
s in
ch art
INT ER
ĠN UM
B asic
.P roperties
ä¸ Ń
_ change
ĠB razil
Ab stract
Ġ: +:
_ use
Ð° Ð»
26 8
ĠL y
IB UT
Ġout er
Ġ-- >čĊ
Ġrel ief
l ap
qu er
_p arent
he ap
LO SE
Ġcomb ine
ĠR ose
ow ers
Ġproced ures
ĠS ort
an im
var iant
eh icle
Ġsign ing
Pr imary
c urrency
Ġsex e
o en
th eta
em an
Ġimpress ive
(' _
ĉ U
ĠText Style
_c nt
Ġs lice
(' :
Ġunderst ood
H is
27 7
0 13
Ġinform ed
Ġn ick
4 29
(T AG
h d
Ġelection s
est ure
ĠS anta
ĠCo ast
.p df
inc iple
.cl one
b orn
ut a
Ġl icensed
C r
Ġb read
ĠH ouston
Ġn od
Ġhop es
ĠCG Rect
Ġgu ilty
.g if
Ġro se
.Com mon
T ip
AN K
ĠF C
D uring
ĠSym fony
Ġdef ensive
k m
) >
arch ive
ĠU RI
ycl ing
- o
ĠWe bsite
AM P
40 5
ish ment
Ġdo ctors
D irect
AR I
ĠRed irect
ier en
9 60
_d ist
y o
ĠPro gress
Ġz um
Ġmem or
ĠE D
Ġj ur
æį ®
_T ABLE
Ġu uid
Ex pr
. head
(' %
point er
Ġest imate
ĠG reg
Ġlo ader
Ġi OS
Ġm ens
[ y
Ġref used
Ġprec ision
is ch
ĠA CTION
Cl oud
s With
( ret
29 2
_ADD R
_con f
(d f
Ġlock ed
Ġr ising
ãĥ» ãĥ»
ĠM s
Ġscen es
_EX T
_ raw
_ the
pe ople
Ġre con
ĠF un
Ġb less
ĠUp dated
4 22
Ã¼ n
ĠĠĠĠĠĠĠĠĠĠĠĠ čĊ
pe ction
Re lease
.log ger
ĠS Y
Ġcoun sel
ur d
_ true
Ġevery body
iv ot
Ġh ence
ĠN AS
78 9
Ġoppos ed
unk nown
ĠDES C
ĠCh air
fa iled
ĠIN CLUDING
38 6
35 2
Ġwrit ers
{ }Ċ
ÃŃ t
_c opy
} :
ĠB at
Ġconvert ed
ed ing
pl acement
ĠH ost
S ound
Ð¸ Ð¼
Ġs ought
40 2
m id
Ġsal ary
og g
âĦ ¢
b ul
Ġw ir
valid ator
_ST AT
.st ore
ĠB attle
Ä± n
Ġ-- >ĊĊ
Tr ump
d ot
ĠCON T
.f etch
Ġcontin u
w as
Ġfra ud
_t mp
mit ter
.p ictureBox
G A
Ġt ournament
. Input
34 3
[ r
ex ion
cent age
ĠKore an
und ef
ĠAv ailable
resh ape
Ġk it
ĠStr uct
ĠS UB
An swer
_l ib
.t witter
Ġo re
ĠDr agon
.Ex t
, k
Ġexplan ation
ref s
ĠDr ive
ĠTr aining
28 2
.H as
34 1
int age
b ig
olog ist
enn is
4 60
Ù ĩ
Ġch icken
ĠĠĠĠĠĠĠĠĠĠ Ċ
ç Ľ
ãģ §
Ġpe ak
Ġdrink ing
Ġen code
ĠNE W
m alloc
ĉf printf
Ġ= ================================================================
in cluding
Ġprincip les
ĠM ah
26 7
st orage
- key
Ġkey word
% ;
Ġtr ained
.con trib
Ġk v
__ ':Ċ
ĠB oy
param eter
Ġsu ite
Ġthous and
Ġco ordinate
-g enerated
íķ ĺ
gener ated
Ġad mitted
Ġp ussy
# w
Ġsw im
un ion
N a
27 4
ĠRoy al
.ch annel
Up dated
_RO OT
Ġv ital
33 5
ra ction
ĠCrush er
Ġpre ced
Ġhor izontal
Blue print
Ġattr s
Ġsm oke
Ð Ĵ
. Equals
F B
ĠRes ources
roll ing
Ġpass es
ĠN um
rot ate
et ype
\ ",
Ġsens itive
Ġt all
? âĢĿĊĊ
Pro xy
i y
_ section
âĢĶâĢĶ âĢĶâĢĶ
br id
Ġcirc uit
at an
EN C
Ġdr iven
Ġvot ed
Ġeduc ational
Ġinter action
abet es
Ġt one
ĠInitialize Component
Ġmer ely
Ġì ŀ
co okie
_ div
ĠUIL abel
vel y
} );čĊ
_ ENT
#+ #+
art icles
ĠSou thern
Ġstrong er
ĠG iven
ĠE ric
ĠI R
ab stract
U nder
n able
Ġincre ment
ov en
Ġco in
_t imer
Ġsuffer ed
ĠF REE
'] ."
ĠQue en
st ats
Ġmeet ings
27 6
Ġenter ing
Ġalong side
(s ession
it als
Ġfound ation
ĠC redit
. div
_ ALL
pc ion
_st at
ick ing
Default s
_s rc
Ġoutput s
/ B
Ġent hus
-b l
.Fore Color
ĉ temp
F ace
Ġinter act
Ġwe ird
M ount
re ll
ud ents
Ġrequire ment
ĠS us
I ER
Ġe lected
re ference
ĠM E
Ġserv ers
.w ait
Ġsnap shot
il ton
Ġtri es
Ġt ipo
.T ime
> w
Ġmount ain
Ġp ounds
Ġ[ ...
ex ists
Ġng On
_M AP
Ġf lying
33 1
xi ety
ĉ value
_D B
un o
Ġse ats
T URN
. author
! )
or ce
Ġindic ated
3 17
.s in
Ġass ignment
im iento
ĠF rame
32 4
_g en
in ery
_ )
m essages
.set tings
ĠMe an
ĠM useum
ir q
att ach
ĠPalest in
_ QU
_t ags
Ġcas ual
em en
ASS WORD
4 32
$ s
ĠC irc
Ð¾Ð ¹
et ric
/ P
0 18
Ġep och
< head
_C MD
Ġg it
Ġpen alty
or ph
_ users
ours es
.Date Time
atern ion
_pro ject
Ġsuper ior
ĠD am
ĠSe attle
X Y
> The
ĠA k
Ġgr ass
/* čĊ
(d is
Ġgun s
Ġt b
ĠK evin
. args
ĠA h
op ed
( J
column s
arg uments
ĠWith Events
_f ull
ĠDef ense
S imple
Ġdeath s
29 5
Ġext ensive
ĠSt ill
ĠEx pression
ĠAg ency
Ġperform ing
F X
Ġus uario
U AL
S ide
od os
apt op
Ġcred entials
_c ap
at ient
ĠDis ney
Ġa i
Ġch ip
Ġvol t
.make Text
%%%%%%%% %%%%%%%%
Ġbelie f
_LO C
ĠC ivil
N avigation
Ġreve al
Ġviol ent
ĠF il
Ġc atalog
em ed
sc an
. control
Ġconstit ution
C ountry
Separ ator
_A PP
top ic
uet ooth
M IN
Ġdes criptor
y t
ET HER
Ġdistrib ute
' }Ċ
.tr im
.L ine
Ġl bl
assert Equals
ĠD et
omb ok
( width
Ġt ort
ĠEXP RESS
ac o
Us ing
ĠBr and
w all
EM ENT
ĠComm unic
< uint
ĠG UI
EG IN
ĠR ange
/ i
ĠT aylor
c ost
Ġrespond ed
ĠTh eme
n ce
IS H
Ġfeat uring
Return s
ĠK r
Ġ .Ċ
Ġn am
_c b
Test ing
Ġ{ },
y al
.f ield
Ġ/ =
_SH ORT
m ates
Test Case
ain less
Ġeval uation
_ ITEM
ĠPac ific
ĉ k
Ġc ant
ĠR os
) s
Ġf et
STR ING
3 19
ĠDis pose
g al
ĠJ oin
ĠP orn
ĠCath olic
AR GET
cp u
ç łģ
.sc roll
32 8
IS ING
ifest yle
anc ement
Ġm erc
ĠB rowser
eter min
Ġover flow
Av ailable
Ġbott le
: UI
ific ial
Ġco ord
clar ation
Ġcon j
G LOBAL
ok u
Ġk wargs
cond itions
ul um
Ġg enu
ĠH ero
å İ
Ġun expected
ĠDAM AGES
Ġk a
ĠC ould
UP PORT
ĠPh otos
Ġconf ident
Ġdet ected
de g
rg b
Ġstrong ly
Ġ} ;čĊ
Ġ) :
Ġle ct
urs ive
RO L
ĠWe ight
Ġent ertainment
Ġ) );Ċ
Ġg onna
Ġb b
.d o
G S
Ġmist ake
D L
ĠPROVID ED
ear ning
L imit
iss ions
[ v
ä¸ į
ir ty
D el
Ġunder lying
pre ne
Ġj aw
ĠD I
pe er
Ġobject ive
Ġde posit
Ġk on
Ġes p
27 8
.set Visibility
/ login
< typename
Ġfr anch
/ e
26 9
Par allel
Ġsc ored
ĠH on
ĠV ill
ig a
Ġant icip
_ assert
ĠO pt
Ġdescri bes
w an
m ount
Ġmonitor ing
Ġt out
ëĬ Ķ
}, {
................ ................
= int
Ġc ust
---- --
Ġatmos phere
P AR
ort e
IS IBLE
ĠI ron
ĠNot ification
.log ging
ĠBO OL
-p oint
Ġaf raid
ent a
Ġtom orrow
@ implementation
Ġeng age
ĠAn th
ĠF loor
ĠU l
To ols
Ġb ab
Ġcare ful
ãģ Ħ
Ġcruc ial
Ġcalcul ated
ĠS A
Ġw y
9 11
D X
_T AG
ind ed
Ġj et
ĠEngine ering
.M AX
en z
v d
Ġpublic ation
Ġ## #
Ġfac ed
ra ham
ĠC apt
33 6
As set
ĠCon stants
Ġlo ans
_ IP
ĠF ish
Red uc
_m at
Date Format
_m e
[] []
Ġintegr ity
ĠC ourse
lob als
Ġfac ilit
Ġem br
ĠN g
.S ystem
Ġmanufact urers
Ġpro ven
.on Create
Ġal arm
ĠÂ §
Ġcomm only
ic os
æĸ °
ĠSt ation
} ).
ĠF ilm
w i
ç ī
Ġeng aged
St ats
Ġgovern ments
5 40
Ġafford able
_p roperty
Ġag es
(' --
Ġf Ã¶r
ĠProf essor
Ġhy dro
P ush
Ġorgan ized
28 4
Ac cept
Ã© m
_c ell
Ġn b
p b
Art icle
Ġrem oval
Ġauth entication
ĠF R
l ide
Ġple asure
ap ol
Ġpart ition
ĠS ide
Ġcr imes
Ġdem o
hold ers
ĠPak istan
In struction
Ġexpect ations
3 32
.sc ene
Ġ' )
h es
ino is
_P ro
Ġm olec
and al
_sh ort
Ġdefault s
Ġn ations
in en
Ġr t
O CK
P acket
S B
ĠSH ALL
_cont ents
ise conds
vert y
Ã¡ t
G uid
n om
Ġcon clusion
. Update
Ġlo vely
Ġem it
b ec
ĉĉĉĉ Ġ
Ġintel lect
Ġb rew
ec ycle
F ire
35 8
Ġad mit
Ġar bit
Ġarr ang
ĠM IN
M ail
ĠN ative
C ur
Ġcon vent
.R untime
" }Ċ
.R un
Ġprint ed
Ġconven ient
. ar
m ock
ĠAdmin istration
ãģ ¾
Ġelect ron
fl ate
Ġl ombok
Ġjava fx
n h
Ġsup plies
Ġvisit ing
ah l
Ġpow der
Ġult imate
Ġorient ation
ut as
_s cale
Con firm
ph ones
ĠOper ation
/ T
44 3
_IN TER
Ġair port
Ġmet rics
Ġphen omen
a udio
33 4
Ġm ai
( K
h u
all ing
rodu ction
ĠTrans port
ĠNOT E
æĸ ĩ
Ġfew er
_T IM
ì §
Ðº Ð¸
A ge
F IN
29 4
Ġì Ŀ
ĠAt tribute
group s
er k
at to
. define
.AspNet Core
ategor ia
ĠS ir
( form
< User
. round
_d ay
.A ll
Servlet Response
.N o
l arge
IG H
qu ent
Ġvir us
Ġret ro
Ġim per
Bit map
Ġv ice
Ġoff ense
ist e
ĠA UTH
Ġê °
ToolStrip MenuItem
G u
Ġr ape
ĠDav is
Ġover whel
: flutter
- table
ĠCon structor
Pr ivate
e ven
ch r
Ġap plies
_at tribute
Ġcon tribute
E VER
28 9
L ines
ĠAf ghan
Vis itor
ĠS L
se ason
C U
Ġintrodu ction
Ġmat plotlib
Å ĳ
Ġnewsp aper
âĢĶ and
< tag
Ġin i
Ġd iverse
Ignore Case
35 3
ĠU r
Ag ent
Ġb ull
.em it
( Exception
ar Layout
Ġincred ibly
ĠTr ust
={ (
- nav
Ġe quals
Ġl ady
ĠP od
d isc
al am
ĠI V
â Ļ
iv idual
ph i
0 17
add ed
Ġdifficult y
Ġcomp act
5 30
ĠAction Result
c ers
_class es
Non Null
Ġqu it
Ġp ou
S witch
ir s
- test
ĠK ind
ĠCal endar
40 6
Ġstream ing
} ',
27 9
S W
Ġst ead
oc a
Ġprov ince
9 78
Ġcol span
Ġperson nel
ĠE mployee
Ġprodu cer
Ġevery where
od b
Ð Ł
bs olute
act ivate
Ġgr inding
ĠBuild ing
ĠSand ers
(s c
ĠOff set
//////// ////
} ;čĊčĊ
({ "
Ġscan f
ĠY Y
ĉdef er
Ġj ew
Ġrestrict ions
.m p
[ l
ä¸ ĭ
label s
red icate
aw esome
Ġw aves
Ġcon front
Ġmeas ured
Ġdat as
_ex it
35 5
ot ton
Ġshould er
ask a
+ #
ĠĠĠĠĠĠĠĠĊ ĠĠĠĠĠĠĠĠĊ
Ġtro ops
29 3
ĠU nd
_c ard
w ich
Ġn ous
Ġ"/ "
s b
Ġcommunic ations
Ex port
Ġdec ode
th s
inter pret
By Name
ĠSp irit
ed ges
O LE
ĠE M
t it
ĠTh rough
Ġb io
ĠP ackage
or ne
29 1
Ġ} .
4 11
` ;Ċ
Ġok ay
ĠZe aland
ident ity
(n ext
ĠB ang
Lib rary
Ġheav ily
il on
Ġdi pl
Ġrot ate
put s
) ',Ċ
ĠData Table
Ġmay or
.to LowerCase
Ġsome how
ĠNor thern
al c
Ġcap abilities
Ġv ibr
+ Ċ
ĠS u
28 6
ĠRes et
_m ean
Ġc ig
.cl oud
ĠB and
ĠF actory
ĠAr izona
_ io
op her
Ġconsc ious
ĠÃ ¶
\ Controllers
_s peed
ĠF ac
_C om
ĠB ible
w en
ED IT
Ġun n
ĠSt aff
ĠIn n
Ġmechan ism
ĠM embers
Ġmigration Builder
'] .'
.get Int
< void
ĉf ree
oid s
\ Support
Ġautom atic
Ġch ances
Ð ¶
Ġcomp licated
[ row
ah oo
Ġ}ĊĊ ĊĊ
Model s
W in
Ġt ape
ir us
iz on
on omy
(" _
: .
.st ereotype
29 6
( env
_re ct
(w ith
Ġassert That
Ġcon straints
put y
E mployee
6 20
T D
Ġgu itar
8 75
ĠJew s
.pro cess
Ġf iction
ĠSh ared
âĶĢ âĶĢ
Ġprop ag
.N et
Ġachie ved
ĉ Q
Ġn urs
Sh ared
_FAIL URE
Ġbeh aviour
Ġcol s
ism o
Ġfem in
Ġchalleng ing
Ġpost ing
enc il
Ġcapt ured
ĠD ou
( word
ĠTur key
pan ies
Ġre putation
ORM AL
Ġelig ible
prot ocol
4 14
id as
(f rom
34 4
Ġfin ance
- per
Ġg otten
H A
d uration
ĠP arent
6 78
Ġin vent
Ġre start
Ð¾Ð» ÑĮ
r ition
(r s
< bool
i ert
Ġmod ification
ĠT X
readcr umb
b ank
32 6
$ /
ĠMill er
] ),Ċ
.Check ed
Ġsac r
se curity
Ġp ose
ĠBr ad
Ġfit ness
Ġannounc ement
ation Token
Ġserv es
ne ed
Ġge ometry
AR S
æ Ģ
andid ate
Ġs prite
_s plit
We ek
ad ies
> (Ċ
?> "
Ġ/// Ċ
Ġein er
Ġweek ly
ĉlog ger
_p op
_m an
Ġmigr ations
Ġask s
Ġb s
Ġfall s
.W here
- height
_fe ature
.M in
Ġhy per
Ġvol atile
Ġtw enty
Typ ography
Un able
D et
, f
-m od
Ġsett lement
Ġcontract s
n ome
B ad
ĠB rian
7 68
(user name
!! !!
Ġh ack
.F ield
H R
ĠJ ordan
iz a
ĠÂ ł
ĠSh er
. header
( other
ĠD ub
( op
ĠR ound
Ġv ie
Ġap pl
ĉ J
ĠIn sert
ĠL P
reg on
ĠM PI
Ġan chor
ac a
Ã¸ r
Ġa de
anch or
que e
ĠTree Node
Ġtarget ed
Ġla id
AB EL
v et
ĠOr igin
A nt
. ');Ċ
ex pect
ed Reader
ĠM ajor
Ġin ch
Com par
Ġpre view
Ġill ness
ĠCONTR ACT
ĠInd epend
u uid
Ġn ome
Ġt c
ĠA venue
is an
Ġph rase
_m ove
") [
4 12
Ġprov ision
Ġconcent r
_ IR
ĠU t
() +
Ġn as
! ,
ĠRob in
i ations
at itude
Ġp x
ĠWith out
/b ash
ek t
re ement
34 2
Ob server
3 18
ĠReg ion
UBL IC
Ġ{ //
K N
å ·
Game Object
å ¾
enc oding
Ġ** *
project s
Ġt k
Ġche ese
EM PL
ar o
ĠØ§ ÙĦ
6 10
33 7
Ġcons ists
ref resh
ure au
ĠSc anner
Ġso il
Ġfl avor
Data Source
Ex ecute
ÐµÐ½Ð¸ Ðµ
Ġsh it
åĪ Ĩ
< any
Ġretrie ve
Ġbelong s
.st rip
abs olute
Ġexp anded
bo y
): -
Ġresc ue
.J Label
Ġre ly
Ġal ignment
-f amily
Ġre nd
OLUM N
Ġb orrow
Ġqu otes
ĠL ew
Ġsh ower
ĠDE LETE
_lo op
! "ĊĊ
ĉ re
Ġattempt ed
aver age
ĠP aint
quis ition
ol en
Ġliter ature
ĠRe ference
_TEXT URE
ĠS eg
ĠInd ust
ct ype
D UCT
_H OST
ĠTr ade
Ġpl ugins
Ġbre ast
ul se
Ġcreat ure
37 2
ãģ Ļ
ĠW i
Ġsup plied
c oll
! ("
Ġfuck ing
ĠCh rome
ĠU ri
ĠN ation
Ġvert ices
T HE
ĠOr iginal
on de
Ġsh arp
Ġcook ing
34 7
Ġ{ /*
ĠPs ych
ĠH ollywood
=$ _
.D ock
Ġg er
Ġb one
_con n
_se c
ys ics
Ġ= "
29 8
S al
s f
Ġdeep ly
ang les
T erm
b ell
ĠQu ick
5 60
ener ation
adio Button
åħ ¥
}čĊčĊ čĊ
Ġcapt ion
l c
ĠE L
, [
ĠĠĠĠĠĠ čĊ
ret t
(m ethod
ĠFl ash
4 70
ĠĠĠĠĠĠĠĠĠĠĠĠĠĠĠĠĠĠĠĠĠĠĠĠĠĠĠĠĠĠĠĠ ĠĠĠĠĠĠĠĠĠĠĠĠĠĠ
W ISE
.s cale
Ġrough ly
_ child
m emory
ay ing
Ġinitial ized
in ator
Ð° ÑĢ
Ġsc alar
ĠH o
ai res
(c olumn
.de stroy
P ACK
Ġh em
ang el
_S UB
. qu
Ġ ×
DE FAULT
pos itories
50 3
ĠL ength
ĠF ast
Ġsign als
Ġ// $
ri ers
Ġd ummy
AN Y
Ġperson ality
Ġa gricult
Pl atform
ER O
ĠT ra
Ġen orm
ĉ W
Action Result
Ġa ver
[ str
Ġ' --
.S printf
Ġdeb ut
Ġ Ñĩ
h ex
_ utils
Ġp b
U ITableView
Ġz ur
. encode
4 16
Ġv ag
.error s
Ð¾ Ð½
Ġm r
ĠA ward
Ġc pu
Ġpress ed
' est
ĠF estival
' T
Ġa k
res olve
04 3
.m e
Ġn ic
Ġgen re
Ġat trib
ĠMo on
Ġarr ive
ĠD ating
Ġt m
.Config uration
50 5
. red
Ġgl m
Ġst ations
sw itch
Ġt ied
äº º
Ġ/ ></
Qu antity
quir y
_t ab
Ġal g
To ast
res ize
quest ions
s chema
L iteral
( entity
NE CTION
ch anged
_F IELD
_HE IGHT
Ġorgan ic
P RE
ĠC at
.D raw
E s
Ġl oud
6 80
ĠĠĠĠĠĠĠĠ ĉ
ĠK at
Ġhe ap
âĢľ It
0 70
et r
Ġun likely
er als
/ auth
50 2
t odo
Pl ace
Post ed
Com ments
ĠTe ch
ĠFin ally
eg ration
Ġmin imal
ĠFile s
Ġt amb
ë¡ ľ
ĠRe lease
4 25
.res ize
Ġ Ï
col lect
= p
ĠLI ABLE
Ġprodu cing
-w rapper
Ġsing les
ĠN BA
or r
er en
.add Action
Ġthe sis
d n
PT Y
.d es
Ġb acter
ĠEx press
Ġ* )Ċ
å ĳ
/ admin
second s
åĬ Ł
uss ion
ab eth
ĠCom puter
Ġr uling
(" ../
.G ET
ĠMed al
ition ally
com mit
f ocus
_LE VEL
ind a
F act
= np
=" ">Ċ
Ġsubsequ ent
pos able
-fl uid
Ġth orough
Ġpublic ly
apt ers
ĠWil son
_P RE
y ard
ä ¼
ĉ in
33 9
Ġre vers
Ġbul let
cri bed
nes ota
Ġ($ _
ann on
c ursor
Ġclo thing
ĠM ulti
28 7
: ',
Ġv ess
ordin ator
Ġein em
C annot
Ġar med
ĉ V
ä¸ Ĭ
.F lat
ĠS ep
ĠSub ject
_f ont
Ġcharacter istics
D one
el n
######## ####
PO S
Ġd ensity
ĠPl atform
- items
Ġo vers
Ġpush ing
ç ¤
.Con nection
_ term
Ġinitial ization
________________ ________________
ç ¬
.d ocument
les h
ĉd ocument
ĠP in
Ã§ a
Ġdefinition s
.P ath
_W RITE
Ġ ĉĊ
? >ĊĊ
Ġter rible
be an
ick ets
ĠS V
B uy
(t ask
Ġreg ime
g oogle
Ġcr ack
.vis it
N UM
ener gy
Ġstr uck
_s ample
.p ayload
Ġre vis
ĠSc ene
Ġp g
Ġbreak fast
URRE NT
.char At
_ex ception
ĠAnt on
Ġguid elines
Ġex haust
ĠFin ancial
Ġind ent
Ġdes ktop
H idden
F ailure
Ġpr inciple
Ġ iv
Ġse ks
n etwork
Ġnumber Of
ĠAl bert
ĉ long
80 1
, .
Ġz eros
f ade
ĠT yp
ĠT erm
ĠAr ts
.App lication
Ġbeh alf
æĪ ·
Ġm ere
(` ${
Ġaware ness
elp ers
f lix
Ġwe igh
Ġestim ates
. child
/ O
ĠBit map
.b ottom
Ġ************************************************************************ **
Ex pect
ent o
ĠFor um
ver al
Ġj ail
Ġab ilities
ĠH OLD
ĠC it
Ġd ynam
Ġgr ay
ĉĉĉĉĉĉĉĉ ĉĉĉĉĉ
.next Int
ant ly
ĠAR ISING
( private
Ġreject ed
ĠN ic
Ġle ather
= {Ċ
aly tics
th etic
.T op
37 3
.P age
={ `
Ġ ;čĊ
de pth
m ann
W D
ĠS om
.R ight
Ġ) }Ċ
Ġtr ait
Ã Ĺ
i ac
Ġr v
S ample
.X ml
opp ed
ĠÑ Ħ
list s
Ġt ear
ivers ary
.c ollection
ĠCon stitution
ĠHttp Response
Ġbr ill
ĠP rom
h over
36 6
ĠM iami
Ġarg ue
_f loat
50 4
Ġ ãĤ
Ġn at
ĠT al
Ġinteg ration
(c ur
Ġrem oving
Ġco eff
ĠTh ough
Ġfore cast
40 8
ĠV egas
S ite
34 6
Ġtr ab
ĠHen ry
- i
Ġinvol ves
B T
Ġs lo
In voke
Ġl ucky
0 25
r at
Ġ? Ċ
Ġhand led
(f d
cont ents
ĠO FF
R F
Ġst y
ĠM otor
ter y
t ax
M AP
ĠMr s
Ġph ones
ĠUI View
")) );Ċ
( dev
ĠIr ish
0 19
Ġw s
D I
_OFF SET
ĠEvent s
Ġst ages
Ġ} //
Ġhab en
ST ANCE
ĠS in
ĠM oney
(t op
Ġappoint ment
VER SION
met adata
_com ment
Ġcolle agues
map s
â ĺ
Ċ ĉĊ
( al
_re q
Ġf ut
Ġarchitect ure
35 1
ĠWH ETHER
ĠĠĠĠĠĠĠĠĠĠĠĠĠĠĠĠĠĠĠĠĠĠĠĠĠĠĠĠĠĠĠĠ ĠĠĠĠĠĠĠĠĠĠĠĠĠĠĠĠĠ
_s creen
Ġstyle Urls
Ġmon ster
. up
ph ia
Ġprocess or
ĠT err
= ',
ĠMan ufact
ĠN T
k el
ib ern
ĉf ile
A li
rient ation
Ġ// !
ap ore
ane ous
ĠC reat
f older
4 15
Ġh ay
Sup press
( left
Ġe uro
Ġdis claimer
ustr y
sh ips
_f d
ĠF a
_in sert
Ġro l
if ting
ĠCom ments
_b r
Ġloss es
ĠAdd ed
ch arg
ĠÐ¿ Ð¾
_s ystem
ĠS ometimes
ĠSp ain
(g roup
ial is
Ġdoll ar
ĠAr gs
4 99
29 7
qu ires
ĠT en
.s css
Ġsurv ive
us age
Ġj un
im iter
ï¼ģ ĊĊ
Ġfif th
t oggle
Ġdecl ine
($ "
(L ong
ing e
Ġpil ot
-l ight
-r adius
Ġpod cast
Ġnatur ally
P ages
ä¸ º
ĠDes pite
Ġlight ing
Ġcr ate
ĠB inary
Ġredu cing
Ġe leg
ĠM ouse
ĠTest Bed
Ġbefore Each
_ ARRAY
Red irect
32 9
Ġf lood
Ġsh ips
36 3
Ġelectric ity
)* (
ê ¸
ĠV iet
her o
Ġd ia
ĠK ent
he art
Ġthreat s
_ acc
Ġs ymbols
is chen
_in st
C riterion
ĠT IM
. Height
5 80
Ġ âĢĻ
();ĊĊ Ċ
Product s
_S P
ĠC y
Ġdepend ent
est e
Ġdat os
d it
Ð°Ð ²
IGN AL
Ġless on
"> '
ĠC over
ĠH ope
ĠT imer
Ġd ad
vid ers
ĠPh ot
/ ?
rop y
om ing
as ion
Ġ\ (
ĠE T
ĠRe ading
Ġep isodes
l m
4 21
ech a
Ġne uro
8 20
Ġhar mon
Ġlib eral
- ind
39 3
D ATA
Ġevery day
Ġdiv ided
ĠActive Record
fig ure
U A
ä ¹
riend ly
te ch
60 1
.game Object
Ð¸ÑĤ ÑĮ
37 4
Ġmo on
ft ime
Ġno ch
ĠT ORT
ĠV M
.in itial
( child
Ġmus ical
Ġo c
b as
ĠH ay
36 1
_l ong
Ġmem set
ile y
adel phia
S V
ro at
_t x
Ġl on
ĠngOn Init
b p
ĠGold en
AC HE
Ġwor ried
az i
E ar
T ake
(f p
bur gh
_ Data
g res
ĠO nt
p us
Ġtrans parent
Ġp ocket
Ġr am
igr ations
. čĊčĊ
Ġ[ (
Ġadopt ed
Ġreported ly
ĠD ream
Ġ} ));Ċ
los ing
Ġte eth
ĠBook s
", &
enn y
LE MENT
Ġg el
ĠPl ant
4 37
! âĢĿ
.h ost
ĠRep ly
37 6
re ngth
Ġrecogn ition
Ġ}} >Ċ
L A
Ġmir ror
Ġassist ant
( device
Ġspirit ual
b uilder
Â §
Ġou tr
Ġt t
ĠP ER
Ġrad ical
Method s
Ġp ace
ud y
Ġg ut
ĠG reek
Ġnon atomic
ĠP aper
_G PIO
Ġob st
.A d
viron ments
ĠS ov
35 6
( con
ĠTrans action
. assign
ĉc atch
el ter
Ġbit coin
_G R
Ġ<? =
_l ang
ìĿ Ħ
B rowser
Ġconsider ation
ĠExec utive
éĹ ´
; \
ĠJSON Object
ĠB ell
Ġspokes man
~~~~ ~~~~
ock ey
ĠG ro
ĠA w
Con straint
ĠPr act
ĠE ver
pr im
: {Ċ
_ im
P N
Mill is
UM ENT
Ġb ags
Ã¥ r
ANN EL
35 4
Ġ ic
Ġtransport ation
ĠS audi
h andler
D rag
Ġh d
c ollapse
_P H
Ġ ub
AR M
ĠA PP
Ġton ight
Ġd ining
Rec ogn
Ġb c
ig t
(n umber
Bo ot
Ġelse where
Ġar row
arg a
Ġdel icious
ĠS N
W R
Valid ate
ĠQ uality
( email
Ġinter pre
ig ation
Ġch ocolate
5 25
_ edge
Ġstop s
: function
) |
Ġth ai
ĠLo ading
St ory
Tr igger
br anch
Ġt d
entic ated
Ġadvent ure
Ġblock chain
Event Handler
Ġs qrt
.P r
L ng
B ecause
Ġv iv
Ġo cean
ylv ania
Ð° Ñģ
ĠUtil s
Ġdes per
Ġdef er
ĉ require
h l
Re quire
] \
Ġdirection s
_res ource
Ġsubs cribe
ĠÃ º
ĠHe art
est s
-s ub
ĠR h
for Each
Ġdel ight
Ġterr itory
.con current
Ġ( +
j pg
Ġprepar ation
Ġround ed
Com m
.Le ft
Ġopin ions
ĠN avigation
(f irst
", $
Ġh ire
Ġdet ection
.getElement s
Ġe ps
Ġsk learn
Ġc z
Ġ/ >čĊ
met ic
Ġtrans formation
åı ·
Ġr gb
istrib utions
Ġimp licit
/ in
dest ination
Ð°ÑĤ ÑĮ
Z ero
Ġun set
9 20
. where
.g o
Ġform ation
Ġdeclar ation
() čĊčĊ
ĠEx pl
ĉĉĉ ĠĠ
/ pro
.J SON
44 1
Ġdes k
.sub str
//---------------------------------------------------------------- ------------
ly n
p son
40 7
dis able
ĠF unc
ĉ Assert
ĠM ARK
Ġdefe at
Ġbl ind
Ġconst ants
36 2
. headers
UIL D
Ġexp enses
P ixel
Ġh r
Ġf el
ĠEast ern
4 24
4 90
_d el
35 7
ĠC ub
Ġs q
ĉc ount
ĠD irectory
Ġex clus
Ġhistor ic
Ġ ------------------------------------------------
Ġcom position
Ġdata GridView
ĠB urn
ĠB C
M aster
Ġsp awn
Ġbe aring
.Set Active
il o
Ġg allery
Ġfound ed
Ġav ailability
.s qrt
Ġp es
ĠD OM
m ate
O ct
Ġmatch ed
it ivity
Ġan xiety
.pr ice
ĠIn stant
ì Ĭ
Ġt ut
IC ollection
.sh ared
_s ql
t bl
lib rary
_de stroy
erm al
ĠNot es
ĠE in
Ġsou thern
ĠOTHER WISE
Ġmac ro
.l ower
cl s
Content View
.l ink
const ant
ĠB es
Ġsome body
n b
3 99
"> {
( local
.. ...
ĠN ull
m x
ĠÃ §
Ġp ause
-------- ---
_M O
ĠC M
Ġfor Key
ĠD VD
Ġclose st
_DE VICE
ĠSte phen
ĠB BC
ĠTr avel
P aint
ĠResult s
ĠR ule
Ġt p
Ġrat ings
c in
c sv
> /
ĠG OP
l ad
Ġ ÑĢ
Ġindex Path
m atrix
= f
ars ed
Ġ} );
ĠC os
ĠS core
Ġt ak
ĠE SP
ĠIN C
_N ULL
-f lex
"] [
int o
el and
Author ization
_F ALSE
Ġg ate
Ġv id
ist ent
T IME
Ġre write
Ġt ie
Ġarch ive
5 11
.event s
.get Parameter
ĠPer mission
Ġprogram me
Ġ é
j ud
Ġcam eras
33 8
34 9
(s ys
ĠSy rian
Ġimpro vements
Ġh ip
Ġsu icide
Ġsch olar
Ġcompat ible
0 22
rem ote
.d own
F UNCTION
Ġman aging
ĠUI Kit
. raw
>> >>
37 1
Ġdem ands
ell ite
Ġd ent
ĠM icro
åı ĸ
'] [$
ĠI E
im ension
Ġt rem
6 30
Ġg ained
.w ith
. ok
h ou
Ġb om
amp aign
Ġjoin ing
f ish
Ġadd Subview
8 60
Ġnor thern
.c or
ore t
D ie
in ish
_com p
Ġatt ended
Ġcoll apse
ĠS S
ac ent
_E QUAL
ĠDe ep
R GB
ĉ test
ol ves
us et
Un ityEngine
w riter
Res olver
, %
if ference
_re move
ond a
Ġfem me
38 5
de code
Br anch
Ġfl ush
Ġinnov ative
Test s
Ġ[' ./
Ġcover ing
. admin
ultip art
(l ambda
ï»¿ namespace
ĠS port
Ġ! (
ac les
Ġde pression
ĠK ong
5 70
Ġp ert
ĠCon n
ĠOther wise
/ home
s upported
Ġp ink
Ġinv ited
Ã± os
_en abled
Ġ- Ċ
F W
en ers
ĠM Y
Ġsuggest ions
Can vas
Ġf er
ĠMarket ing
@ Test
unt u
ĠV en
ĠC ou
iv als
Don ald
lim ited
ĉĉĉĉĉĉ Ċ
Ġanal yst
( entry
Ġrepresent ative
_at tributes
Ġf ur
.h ide
res p
ado res
rid es
ĠJ osh
ro bot
ĠN AT
Ġs esso
Ġintegr ated
: true
part s
Ġst upid
: event
@end section
Ġp u
.T able
ĠY ii
` ;ĊĊ
Ġcl ang
=" ">
eng an
_param eters
.int ernal
ĠMod ern
Ġmet ric
Ġsem i
={ {Ċ
70 7
.am azon
ĠB B
aint y
view port
36 7
Ġstart Activity
dis patch
**** *
Ġfl av
iffer ent
38 2
[ this
Ġst ake
Ġarg ued
vious ly
.w ork
ĠO ak
O ld
( async
not es
Ġfl ip
Ġdis ag
ĠT E
ĉ error
< '
ĠÂ» ĊĊ
Ġfilter ed
ĠM ach
Ġh ung
_d ump
_s amples
-dis miss
Ġr ay
Im plemented
D K
Ġj ed
0 90
Ġbreak s
Ġf its
. gr
ĠZ ero
or o
Ġequ ally
Ġ' [
Ġconcern ing
< meta
play ers
_P OS
_s im
J an
Ġyour s
ĉ N
Ġsp ir
Ġch ampion
ĠAn alysis
ap a
ĠNS Log
_l ines
Ã± a
ĉĉ ĠĠĠĠĠĠĠ
8 19
.S c
Re p
etro it
ur able
M IT
com pat
own ed
_ind ices
], čĊ
Ġdis covery
ĠDie go
ob i
. Index
Ġtrend s
PL AY
.n o
Ġl ens
_c fg
Ġan no
ag an
Ġperiod s
ter ms
y z
Ġattack ed
ib ration
PEC IAL
_ grad
Ġaccord ance
.Read Line
.de vice
ri x
. container
m ay
erc ise
ĠL u
Ġr g
ĠÑģ ÑĤ
ĉĉĊ ĉĉĊ
( un
TERN AL
Ġless ons
Ġalleg ations
Ġtrans mission
.Re f
M obile
ĠT ournament
ĠN ut
ĠG a
ĠCap ital
def inition
- exp
c lean
Ġfant asy
Ġenh ance
ent ence
0 31
'] :Ċ
ack ets
Ġcelebr ate
@ ",
Serialize Field
Ġarray s
t b
ĉ st
[ assembly
( reg
.c ategory
Ġimpro ving
Ġsal ope
Byte Array
Or iginal
Ġ[ {Ċ
åĽ ŀ
ĠCl in
oen ix
ĠS amsung
Ġmaint ained
Ġag enda
f ail
Ġpres ents
Ġtim ing
.m ark
' ><
Ġprom ot
Ġin cl
_ only
ë¥ ¼
ĠAtt orney
- date
Ġlands cape
Ġf u
S Y
.p rop
ĠA rr
p ag
Parallel Group
': čĊ
Ġlog s
a unch
unc i
n ama
Table Cell
iss ues
. {
ec urity
_ex ec
old s
Ġhost s
Ġpro to
_ import
_s ort
ĠB ow
ĠN ormal
ĠF arm
.create ParallelGroup
R otation
. err
Ġp leased
it age
.W h
ĉĉ ĠĠĠĠ
M R
ĠM ORE
ĠN atural
_ transform
B ASE
ener al
ut down
.common s
W T
Ġa an
. Result
d og
Ġclick ing
), ĊĊ
# line
Oper ator
Ġc iv
Ġm erg
ob uf
ng then
Ġ[ {
Ġcan cell
tr igger
. :
W ORK
decl are
Ġdecre ase
ÅĽ ci
lo om
.N one
ĠM I
ĠJ ason
Ġhealth care
iam ond
s ylvania
* x
ĠR a
[ b
Ġprint ing
ph abet
ĠLab our
op per
Ġz ijn
-t arget
_F UNCTION
Ġo ct
ÐµÐ½Ð¸ Ñı
åľ ¨
Ġwest ern
Ġcomput ers
ĠR ET
Hash Map
[ String
get Value
_D ATE
.N ext
ĠF if
Ã© l
ick ed
æ İ
-M M
Ġ{ ĊĊĊ
Ġcontact s
Ġdig its
Pro du
Ġunus ual
Ġrapid ly
t ures
Ġang ry
c ancel
xx xx
_p arser
id ity
_P REFIX
7 10
Ġme hr
Ġrare ly
et he
op es
Ġ% .
work s
Ġthe ta
Ġcontrib ution
ĠT ony
Ġsqu ad
5 37
Ð°Ð ¹
ĠÃ® n
th ere
out ed
ĉ q
Ļ Ĥ
g ood
L I
é¡ µ
ĠL iving
iz abeth
Ġk t
ĠD allas
] ],Ċ
Ġ/ >ĊĊ
Ġrais ing
/r outer
_g ame
36 8
ĠC UR
z ens
. es
Ġfont Weight
(f unc
not ification
Ġ'../../ ../
Ġbl ame
ãĢĤ ĊĊĊĊ
an co
9 80
Id entity
f ollow
Ġart s
x s
Ġofficial ly
ĠSt udio
Ġrecommend ations
Ġloc ale
Ġam ateur
ĠEn able
Ġcap s
. End
38 8
- add
_g shared
ĠC T
For ce
Ċ ĠĠĠĠĠĠĠĠĠĠĠĠĊ
Ġor ange
Ġl p
Ġanswer ed
.G rid
Ġd ual
Ġstrateg ic
Ġnob ody
Ġf atal
_ est
( el
Ġì ł
ĠB udd
A IT
_f actor
- one
ĠH AVE
" čĊčĊ
7 60
Pro f
ĠÃ¤ r
str ings
Ġdir ty
ĠF ace
ĠB egin
ĠB us
Ġw is
åŃ Ĺ
Ġspe aker
Ġcar rier
ĠO m
Ġhad n
All ow
:: __
Ġver b
ĠCom plete
ĠE asy
Ġb ills
ĠĠ ĊĊ
Vert ical
Ġpr on
ĠDef ine
Ġlook up
variable s
Ġpand as
um es
Ġinn oc
Ġset Up
ĠCh ampionship
art ist
ĠC Type
F oundation
à¹ Ī
ĠSet up
4 28
Ġrec ipes
ĠU IColor
ĠF ight
Ġauthor ized
_c lick
99 0
_s uccess
ang an
ĠMount ain
ĠDo ctor
Ġeg g
ĠMedic ine
c les
` .Ċ
[ int
d ashboard
ĠApp ro
-d r
Ġprodu ces
Ġrent al
Ġre load
38 1
Ġarr ival
sp ot
Ġund ert
37 8
Ġequ ipped
Ġpro ved
Ġcent ers
Ġdef ines
al so
Ġop acity
ĠUn fortunately
ĠIll inois
ĠÐ½ Ðµ
ĠTem ple
ĠTr ail
ĠK elly
Ġmeasure ment
Ġsepar ated
-c ircle
H ey
ĠRE AD
ig its
Ġ ib
ĠM OD
atter y
Ð°Ð ·
Ġv end
ÐµÐ½ ÑĤ
ĠHttp Client
35 9
s afe
_A SS
ic it
ĠCon struct
ĠC lo
ĠS ix
_T OKEN
(b lock
Ġwarn ed
/* !
! </
ac ades
Ġm arg
er ase
Ġdispl ays
istr ator
get s
Ġg tk
_G ENER
n ed
_ %
Ġfavour ite
ĠB ru
ĠÃ ¡
second ary
Ġm ast
Ġs oph
ĠSaf ety
h ard
06 2
ra ise
ĠEx change
Ġcont emporary
Ġdream s
Ġt el
Ġneighb ors
ĠH oly
38 3
.m ean
8 10
em it
ĠM ess
C ast
NE CT
pl ugins
Ġr b
w r
Ġh ub
ĠStud ies
56 2
Ġposs ession
$ ('.
ens itive
Ġadd Criterion
__ .
Ġexpert ise
Ar ch
Ġc ub
erv ers
Ġpartic les
u ar
Ġbound ary
) ',
aj o
Ġpre f
: `
Ġhar ass
i u
Ġreach ing
Ġme g
Ġz o
( ID
_re quired
Ġs Ã©
ĠQ ueue
A O
Ġg em
8 12
pt on
8 80
ĠĠĠĠĠĠĠĠĠĠĠĠĠĠĠĠĠĠĠĠĠĠĠĠĠĠĠĠĠĠĠĠ ĠĠĠĠĠĠĠĠĠĠĠĠĠĠĠĠ
6 60
ij k
( {čĊ
Ġcoll ision
ĠUkr aine
Ġ-* -Ċ
NS Integer
_B LOCK
5 67
ĠText ure
Ġdecl ined
n an
_w ait
Ġpolit icians
4 13
Ġco ins
Ġder iv
h elper
ĠPer haps
.re ct
ĠPol y
ab ling
}/ >Ċ
Ġinnov ation
_ "
Ġ );čĊčĊ
Ġsp ots
Ġcho osing
.c s
Ġflex ible
U Int
4 35
9 30
Ġscr atch
- al
Ġf estival
Ġout standing
================================ ================
M ean
ĠO regon
s ymbol
. account
d ney
'' '
! ",
9 01
Ġpart icle
Ã ĥ
[ MAX
IV ER
ER ENCE
NS Mutable
ĠColum bia
_ ĊĊ
.f r
Ġc ogn
V R
ĠMethod s
ĠM ade
ĠB R
ĠEl se
Ġeg gs
Ġsw ing
ĠIn v
Ġdise ases
Ġf irms
Ġle mma
}` );Ċ
l ings
Ġg ym
umin um
.T rim
M em
Ġcritic ism
ibern ate
_T X
ion i
Ġguid ance
Ġrepeated ly
Ġsup plier
Ġpaint ing
8 64
.F ragment
ed Exception
Ġw iring
Ġcour ts
W EB
æľ ī
\ .
ill ance
Ġb rows
ĠP attern
PL ICATION
ĠSum mer
Ch ain
Ġc ute
mer cial
Ġd il
ĠFrank lin
ĉg lobal
IN CLUDING
h istory
Ġl st
Q t
SD L
al ia
i ere
( ...
ĉc in
iff s
vel ope
ĠR oot
cl uster
User Name
ign e
< S
Ġf est
4 19
Ġindic ating
ke eper
Ġc ada
Ã© g
cons in
ĠG B
Ġl b
em ony
-icon s
_d oc
Act or
e lem
.De lete
Ġin fection
ĠPriv acy
Ġgreat ly
ĠP os
ĠT reat
Fl ow
Ġattract ive
ĠMar c
s udo
tes y
- an
99 8
ab ama
ĠW ould
Ġsu ck
index Path
ĠE t
T imes
7 80
Ġclub s
_ass oc
Ġac quired
(" :
Ġint ense
.m aps
Ex pected
T oggle
Ġa y
Ġl ifestyle
-c alled
ĠS now
V olume
Ġcann abis
ĠD irection
ĠLim ited
-s pecific
Ġd owntown
/ icons
Ġre ven
L eg
88 5
= null
49 6
Key board
') ).
Ġ"" ;čĊ
Ġatt itude
.n avigate
- error
AM PLE
ĠJ ay
v r
c ow
.com pile
Ġmem ories
_m ark
ĠMin nesota
Ġk osten
Ġprob ability
w arning
Ġgen etic
F ixture
ĠHash Set
N ombre
_m onth
Æ °
- start
xy gen
ĉ ft
i agnostics
ĠMat thew
Ġconcept s
Ġcon str
. State
Ð¸ Ð½
N ov
Î ±
ĠP anel
ä¸ ª
com pare
> ()Ċ
Ġapply ing
Ġprom ised
Ġo x
nc ia
ĠValid ation
ort s
_c ur
e lect
ey e
( Data
Ġreport er
ĠB uff
39 5
Ġs r
Ġ" ;
ick y
Ġtemp or
S N
Ġres ident
pi res
ys ical
Ġend orse
ĠS ong
is Empty
le et
_ util
Ġdist ingu
ĠT alk
ĠM ot
( default
.A rg
gorith ms
_ words
im mer
_res et
f amily
W W
Ġsav ings
ĠâĢ Ŀ
_en able
side bar
Run ning
Ġal i
Ġtest im
Ġwarn ings
ĠCh em
ĠEx it
Ġfound er
pect or
Ġr m
_d ataset
ĠD as
Ġh an
Get ty
Ã¡ l
Ġn y
Ġpo verty
Ġresult ed
.b y
ĠVis it
Ġobt aining
/ '.$
ĠĠĠĠĠĠĠĠĠĠĠ Ċ
sh all
_LE FT
UI Image
_ Name
h ave
ĠN ob
l r
- footer
Ġn aked
ĠG arden
\F acades
Ġgrad uate
4 17
Ġfranch ise
pl ane
Ġcontrib utions
Ġstring With
Ġc rypto
Ġmov ements
ath ers
Ġlif etime
Ġcommunic ate
j ar
ĠFr agment
_ IF
ĠN avy
ĠF igure
Ġsim ulation
_st op
Ġreport ers
Ġvers us
aj a
ĠÎ ±
Ġgovern or
List Item
Ġse aled
.Back ground
ed i
ash ing
Ġl ip
ĠI h
mer ge
Ġn ec
0 24
el ocity
ATE G
Ġse eds
Ġflo ating
7 01
_F A
w alk
ĉ user
_de pth
Ġw age
@ app
N il
( ["
( vector
Ġsecret ary
46 1
Ġj Panel
ve z
ÂłÂł ÂłÂł
d irection
ĠE P
Ġh unt
39 6
Json Property
ĠP ORT
] ",
Ð°Ð ¿
ĠFore ign
pan ic
Ġtri als
ĠA le
Ġr ural
- value
author ized
ĠScot land
.d rop
ĠM T
ç ±
39 1
row th
5 15
File Path
Ġrec all
if le
Ġc el
ĠSE LECT
k n
_c ase
Ġc rop
5 43
s ure
p ot
IC S
Ġst em
Ġindust ries
P ut
Ġa ber
road cast
Icon s
) ")Ċ
æĪĲ åĬŁ
g ui
Ġassum ed
Ġr x
E A
è §
EL L
Ġdo se
Ġin e
Ġde eper
l ider
Ġord inary
Ġg olf
60 5
_IM AGE
ĠN AME
(m odule
Ġat om
Ġbel t
Ġoff ices
50 6
b eta
Ġphilosoph y
( JSON
-f ield
Ġintrodu ce
Ġconven ience
opt im
> "Ċ
ath y
Ġemploy er
qu ate
Ġed ited
Arg uments
ĠN ations
__ )
Ġno se
ĠS ample
' )ĊĊĊ
Ġc ake
.get Attribute
H D
39 2
Mod ified
4 45
Ġpredict ed
Å Ħ
an ie
S orry
(d oc
w ind
ie ve
Ġprov isions
AT ER
OT E
M Y
.A utowired
ĠB ath
4 23
. Boolean
Ġback end
.M ouse
ater al
p aper
Con st
ĠV R
_ entity
_C TRL
ĠProte ction
ĠG M
ĠStud y
Ġsou p
ot ime
' use
] "
/ users
a ug
ĠH ong
_n orm
ãģ ¨
Ġse cre
(B uild
ĠCon tract
ol as
Ġsa uce
Ġaggress ive
Ġrac ial
char acter
@ @
Ġcomp ile
ĠV oid
_re m
_m emory
34 8
k k
Ġm ic
S ame
U tility
ĠH tml
ĠX ml
Read y
Ġg all
Ġalleged ly
ĉĉĉĉ ĠĠĠ
ĠMet al
ĠPerson al
Ġborder Radius
rx js
object s
Ġwant ing
Ġb owl
v endor
offset of
ĠR s
ĠR ating
Ġr ally
_N ODE
4 18
ĠM ix
Ġadvert is
48 5
66 7
Ġnarr ative
s al
Ġm c
SE rror
Ġf ingers
Ġaccom pany
Ġt ired
Ġstr ide
Ġgu i
el ist
Loc ale
Ġrele ases
ik ing
Ġan ger
)) )ĊĊ
alle st
Sum mary
( O
(f or
Ġbasket ball
Ġroad s
ĠInst all
ĠF ab
it map
4 75
Ġ) )Ċ
Ġinter section
ighb or
ĠB ry
ĠHER E
So ftware
elf are
ac s
6 22
Ġtrail er
.get Class
ch ars
Ġreg ulation
Ġref ers
Ġde struction
Ġcontin uous
ĠAust in
é ¢
ak an
.w indow
ĠTem plates
Ġabs ence
: n
Ġdis order
fl ash
Ġde let
bo ards
ĠĠ ĉ
RO P
ĠĠĠĠĠĠĠĠĠĠĠĠĠĠĠĠĠĠĠĠĠĠĠĠĠĠĠĠĠĠĠĠ ĠĠĠĠĠĠĠĠĠĠĠĠĠĠĠĠĠĠĠĠĠĠĠĠĠĠĠĠĠĠĠĠĠĠĠ
Ġac qu
Ġlaws uit
ĠRe views
Ġgar age
t imer
Ġe j
ĠRect angle
Ġflow ers
39 8
il st
ĠIn stance
S uper
d et
dis posing
ĠE S
ĠI C
ver e
S k
_ch annels
put ed
/ null
nn en
4 31
ĠG allery
_g lobal
Auth entication
ĠR ank
Ġblock ed
Ġcal m
mark et
ĉ val
Ġa ug
per iod
ĠCon stant
Ġ?> ">Ċ
Ġl obby
p al
37 9
Ġs ink
50 8
ia h
Ð ¡
urn ame
Ġcon ver
Ġinvestig ate
Ch rist
H ub
ĠIN D
ĠP ed
ur as
ĉ url
ĠT ro
Ġpre ferences
Ġguarante ed
` ĊĊ
Ġport ions
Ġeval u
' ></
() {ĊĊ
enc oded
z illa
.C lass
Ġ* _
_ '
Ġview ed
ĠPhil adelphia
. rows
Add ed
ĠT ouch
8 40
.de legate
quee ze
sl ide
ĠSen ior
(t ag
Ġinter views
Ġsu a
at as
@ ĊĊ
d istance
Ġse in
late st
ĠPr ince
Ġlux ury
Ġre fr
ĠK itchen
Ñ Ħ
( at
F inal
Ã¼ ck
_z ero
ĠA BC
ĠMan chester
Ġc ow
C OL
_NUM BER
ch anges
gener ate
.Print f
36 9
sh are
St ock
ĠP T
An im
ang a
Ġ ig
upload s
Ġpack ed
Ġ} ];Ċ
(s ender
ĠW ire
is ons
Ġplay off
\ E
60 8
/ R
Ġhead ed
Al pha
( order
Ġoppon ents
ack son
_m ember
T urn
ĠSov iet
ìĹ Ĳ
au ge
44 8
Ġin coming
Ġj ak
-g ame
ĠM ale
ĠMon th
St age
.ex e
Own Property
.set Item
Ġd c
ä½ ľ
Ġbr ut
Ġattempt ing
.l en
Ġjud gment
Ġs ab
Ġc ad
ĠItem s
com fort
el ize
/ log
Ġentre prene
Ġcomp iler
_valid ation
re view
Ġtext Box
Ġfra ction
ĠB al
> ;ĊĊ
.AutoScale Mode
Ġc ats
4 65
Ġreg istry
ul us
F I
p ayload
- search
Ġstay ing
ac ious
Dec oration
Re view
In f
Ke ep
it is
, String
Co ord
Ġper o
S ex
ĠAtl anta
uest a
Arg b
> *
} _
F ooter
Ġemploy ed
_b ound
v ide
.f unc
$ scope
Ġsp o
ĠAn al
ounc ed
ar ound
Ġrestr iction
Ġsh ops
å Ģ
ĠLat in
-c ol
Ġbare ly
ĠE uro
E r
Ġfa ire
_d istance
_un lock
Qu ote
IV ATE
Ġå Ī
Ġaim ed
ĠRet rie
. iter
Ġwr apped
Ġagre ements
str ument
( product
Ġstud ied
.set Value
Ġy e
ĠC ache
MB OL
Ġquarter back
Ġsy ntax
.getElements By
.v ersion
we bsite
Run ner
_s ingle
at iv
ĠAl tern
ĠBeaut iful
right arrow
Ġd iversity
pl ash
( co
.F ill
Ġtyp ing
38 7
0 23
Ġcl ar
H it
O O
ac co
50 7
w orth
Ġscript s
ĠMuslim s
ĠL L
erv ing
( boolean
Ġbase ball
ĠC AN
39 4
0 44
MA IL
de pend
Ġrespect ive
Ġconst expr
.* ;ĊĊ
'] ))Ċ
Ġy ard
Ġident ical
if ecycle
US H
up iter
. validate
cl i
IST ER
Ind icator
F ail
Ġdemocr acy
. var
Ġsatisf ied
------------ -
enc er
h or
Ġr ounds
DA O
o a
Ġfl ask
= c
[ ]Ċ
/d ist
Ġpart e
Ġconfirm ation
er on
aw are
<? >
Ġdepend encies
ĠV ideos
- row
Ġ** /Ċ
Ġn ou
Ġh over
æ ŀ
Ġn in
ĠUS D
M ac
_L oad
Ġout comes
_s ocket
Ġqu eries
w m
59 2
Ġhit ting
in ux
M ich
ud ge
AT AB
Ġvulner able
ä ¾
Ġport folio
: YES
ĉm ap
B ound
Ġiter ation
in cess
Ġact ors
ĠQ ual
_c lean
ãĢĳ ãĢĲ
MS G
G reen
ĠOff icer
Ġsm oking
> ',
ĠF lo
++ ;
4 33
oly gon
Ġbul k
Ġdr ama
Ġexception s
os ed
Ġ+ čĊ
Ġleg acy
C V
Ġcontrib uted
ĠTer ms
Ġb t
4 34
Ġunt uk
Ġal ien
=== Ċ
ĉ Vector
Ġl s
On line
.f acebook
num eric
ock ets
A ut
b ury
-re dux
ĠRed istributions
GLOBAL S
urrenc ies
Ġt ons
âĢĻ ,
ĠÃ ª
(c ol
ĠS ymbol
Ġstay ed
ĠM L
Ġm unicip
Ġsex o
S en
n r
Ġg ains
Ġshort ly
.M enu
Ã ½
KN OWN
Ġoper ators
- V
ĠPat rick
/ add
_C O
ir ation
(p ost
Post s
/ _
Ġpl ug
Ġintellect ual
Ġmet ab
Ġpregn ancy
ĠPrem ier
n m
Ġpred iction
60 6
ĠMin istry
Th ree
val uate
ĠMin i
b u
Ð¾Ð ·
< ul
Ġd d
ol ving
ĠC ut
60 2
Ġs chem
.tr ain
it ate
Ġr ice
Ġbird s
ãģ «
m iddle
struction s
Ġn erv
a que
45 3
Ġfl u
Ġsurv ival
ĠGal axy
ĠF ant
. Order
At trib
irt s
Ã© c
M ovie
Ġcon ce
qu arters
Ġm ood
.Add Range
9 42
Ġres olved
ãĥ Ī
Ġburn ing
70 2
ĉĉĉĉ čĊ
ĠW E
Ġhost ing
L AB
Ġman agers
Ġstre ngthen
< const
ĠFire base
on ed
ĠJ ean
' </
Ġ:= Ċ
al gorithm
ĠA rc
Ġfro zen
_event s
Ġover se
g oods
Ġf ait
Ġvi agra
os es
9 22
Ġcomp iled
ĠA th
Ġsub stance
an imated
P F
pre vious
Ġro ots
(f ilter
olum es
Ġint ro
(e vt
ĠB ag
ĠDef inition
ĠFe atures
An notation
Ġav g
(s um
QUI RE
Ġrender er
ĠF ix
.dat etime
= device
S pe
get Instance
Ġext ensions
_n et
ĠPar liament
Ġcom ic
4 68
ĠP ick
ar ma
ĉm odel
Ġ --------------------------------
Ġm eng
man ual
ad apter
} -
ed back
Ġelect rical
ĠCount er
Application Context
_by te
( byte
ĠAut om
Ġterror ist
ç Ĳ
th rough
Ġf iscal
on ing
45 5
Ġspect rum
Ġbit map
Ġs le
pro d
Ġag ed
Ġb ene
ĠS pi
Ġbrill iant
Ġst ability
Ġdi abetes
Ġconfig ured
b one
7 48
48 4
ous es
.google apis
F ACE
Ġinspir ation
ĠD etroit
en ch
ÑĢ Ñĥ
veh icle
St ation
Ġh oles
Ġd urch
.M edia
ĠC NN
in ning
60 4
ĠPenn sylvania
Ġem otion
Sec ret
Ã¡ rio
ĠR ate
45 1
Dep th
Ġmod es
4 26
(id x
Ġh es
Ġgre y
St andard
Q uest
b uy
s ur
ĠTr ack
om m
.g l
Ġ( \
t wo
_ IO
ose x
_ role
ç¤ º
r outes
Sh op
ĠA SC
Ġmem cpy
d irect
44 6
Ġ* ĊĊ
ĠB M
ĠP or
_h istory
ĠResponse Entity
.set Font
Ġeng agement
, h
ĠWord Press
fe cha
Ġentr ance
Des pite
ID ENT
Ġsan it
ĠGener ate
(" ",
_v ideo
Str ategy
_ ok
Ġt ies
Ġlog ical
ĠB ron
( File
ĠM oh
.S plit
.T ry
ĠH ind
Ġsc oring
Ġapproach es
Ġfl our
V RT
80 4
UST OM
46 7
script s
ĠEp isode
38 9
ĠA mb
_ OR
Ġfra uen
Ġun like
Ġr iding
Ġp it
Ġtrans f
art e
à¹ ī
ra pe
ret val
_a fter
" <<
70 3
ĠBer lin
Ġt issue
.Int ent
ĠÐ´ Ð»Ñı
Ġst unning
ĠH al
. Integer
Ġwhere as
Ġde leg
Ġuser Name
Ġform ats
Ġcompens ation
ĠH um
arr ing
Ġuns afe
P in
cl ub
key word
_th eme
Ġcall er
Ġg host
Ġent itled
ĠM as
56 1
Ġdemonstr ate
ĠHow ard
D rop
# undef
4 27
Ġinv oke
ĠB ridge
end en
ib ling
Sl ot
ATAB ASE
Ġtemper atures
ser ies
ĠRem ember
Cal endar
B F
= ?
0 64
ĠA F
( http
m akers
fin ity
prec ated
W H
olid ays
- un
ia le
\ User
re ason
', ĊĊ
OW ER
Ġpredict ions
pro b
.n n
Ġ' ;Ċ
.From Argb
_L ONG
Ġtr oub
Ġun ittest
eli hood
ĉ is
44 2
Ġcon sec
LE ASE
Ġclick ed
Ġtem plates
B Y
per m
match es
l aw
(t f
_r atio
item pty
Ġcre ator
B its
Enc oder
* .
ĠU IT
ĠM ask
c url
-g o
ĠO cc
cor rect
ĠG er
(l ayout
un ct
.dis patch
; amp
.is Required
ĉd o
m ir
Ġp thread
- auto
ĠI ce
Ġviol ation
Ġcon cluded
Ġvar s
can vas
ĠT emp
ĠPhil ipp
Ī ëĭ¤
cre ase
Ġfish ing
ab bit
Ġconcent ration
irth day
Ġg ross
Ġk i
ĠH andler
Ġimmigr ants
è Ģ
U nd
p n
r ac
45 4
ĠCons ult
f old
Ġstrugg ling
he at
G eneric
Ġrid ic
ĠCO VID
om itempty
_O PTION
ê° Ģ
Ġcreat ures
_P AGE
e i
(h ost
_H PP
5 16
ĠX XX
Ġaw k
asc ade
Ġpre g
pro vider
P al
eg en
cl one
.Reg ister
Ġatt achment
be it
the less
( Date
ĠFore st
CG Rect
Ġchild hood
am ine
ax es
'] =
N avigator
Ġre plied
_in v
, T
ĠFe ature
4 38
{ -
L ANG
Ġcon vey
çĶ¨ æĪ·
ĠSer if
ĠA us
lic he
Ġun used
Ġm ont
n odes
Ġse u
.class Name
n orm
_S ERVER
Ġw ing
in x
R aw
ĠJ am
5 90
Ġins ight
47 1
5 35
ĠN G
ĠInter face
Ġst mt
Ġn an
cul ator
- app
(B undle
Message Box
à ®
Ġme ets
ub y
Option Pane
it arian
Ġcollabor ation
m ovie
Ġarm or
_b its
ĠH aving
Ġn ude
ĠSet ting
Ġsu cc
D elay
.com ponents
ach uset
ĠAlex ander
Â ©
Ġmet ers
Ġprepar ing
Ġin cent
å ĵ
ĠkÃ¶ nnen
ĠCons erv
Ġnum ero
achuset ts
- int
Ġemph as
layout s
Ex cel
IB Action
Ġres idential
el ing
ĠN C
ĠAll en
Ġc ette
Ġmind s
.re quired
Ø ³
ĠGirl s
Ġ} ;
ĠstringWith Format
Ġaddress ed
th ey
ĠB lood
pos er
Ġj am
È Ļ
æķ° æį®
Ġstd out
ĠU TF
Class es
> ";čĊ
ĠS av
.B old
Ġen ables
ĉt mp
Ġman ually
ĠS qu
user id
.f unction
.c ache
LO PT
.S ervices
5 88
dd it
t im
< img
ĠTh ings
ĠEvery thing
Ġa pt
39 7
em and
Ġroll ing
ë ¦
. level
Ġst om
ĠW inter
Ġview ing
( values
ocom plete
v ia
up o
Ġabort ion
5 32
i Ã¨re
ï¼ ĳ
_B UTTON
_d omain
Ġb ra
ĠA st
in as
Ġstat ist
c od
L R
Ġdr ives
Ġfollow ers
Ġall ies
ĉc urrent
ecess ary
Ġdam aged
_ pt
and les
oun tries
Ġsim ult
e u
Ġcontrovers ial
_G ROUP
Ġr ib
. Info
: mm
.n ormal
_ADD RESS
Ġ íķ
add le
ĠD ur
. Element
65 6
W arnings
Ġcred its
Ġin hib
Ġem issions
5 45
Ġh az
.y outube
ugg ed
Ġbo ther
ĠK ansas
ĠF ixed
ĠTest s
ĠF IX
57 6
Un iform
Ġk ont
>> >
st ation
lo re
at ype
ish op
/ ****************************************************************
5 21
Com boBox
Ġvac ation
Ġiniti ative
Ġdefault Value
7 70
con cat
ĠK h
6 32
ĠW elcome
ized Name
M igration
Ġgrad ient
H ot
Ġhard ly
el o
ĠStud ents
Ġlo ose
7 30
at z
.S end
' /
Ġunivers al
Ġenter prise
Ġreg ex
Ġvis itor
ĠF ly
Se q
à¸ Ļ
ĠVis ual
Ġlib raries
ato es
P ayment
44 7
Ġp ent
Ġgather ed
VRT X
ĠD M
S plit
Ġlet ting
Ð Ŀ
_error s
ep och
P ARAM
c u
ÑģÑĤ Ð²
ol utions
Edit ing
font s
Ġalloc ated
ĠB ased
( Y
ĠJud ge
Ġbro thers
FILE S
Ã§ o
5 31
w b
_P I
' ^
Ġs word
.s ervices
Ġn l
T im
ig g
ĠMo ore
Ġcrypt oc
åĩ º
_post s
ot ate
? '
... .ĊĊ
Ġk l
=" $
Ġdec oration
áº ¡
ĠD IRECT
G UI
) =>{Ċ
Ġnews letter
Ġprec is
(p oint
ĠEqu ipment
ut y
ĠD ave
Ġparticip ation
u arios
x it
.A s
ET ER
or ous
Ġsh ield
[] >
ilit ary
. origin
Ġprom otion
U nt
Ġc t
TR A
55 6
View Holder
Ġsig ma
d elta
are house
con tract
( Vector
7 21
Ġcompet e
/ form
/ components
Ġn r
ĠInd ones
ĠÐ¾ ÑĤ
ĠV olume
.f iles
(res p
/ models
Ġsur f
stand ard
/ o
ĠXCT Assert
V ICES
.C ode
SE D
Ġact ivate
D elta
Ġlimit ation
ri j
Ġpregn ant
: ^(
Ġs our
p ie
80 3
Ġexp ense
ic ation
ĠL arge
ĠÂ ±
ĠB owl
(model s
/ N
8 57
P a
.re load
Ġwonder ing
46 2
Exec ution
ĉ ĠĠĠĠĠĠ
ĠG raphics
ĠCont in
_j ob
Ġget Name
ĠM agn
ĠD WORD
m ad
Ġn h
fe atures
} ");Ċ
he ets
(tr ain
z n
Ġrecru it
.con nection
Ġbar rel
Ġste am
_set ting
Ġang ular
ane ously
Ġb il
ĠN orm
5 22
(! $
ib t
% (
Ġpos it
ĠF ather
int endo
5 65
L ive
04 1
Ġport s
Ġme j
Ġland ing
pon der
Ġc od
_HE ADER
.M argin
Ġball s
Ġdiscuss ions
Ġbl end
H ex
Ġfarm ers
Ġmaint aining
ĠĠĠ čĊ
s yn
[ T
r us
4 39
uff ers
Ġcontrib utors
_s ys
.De bug
Ġconstruct ed
om es
? id
sl ider
Ġsup pliers
6 11
scri ber
p es
Ð ŀ
": čĊ
\ Controller
)) ĊĊĊ
Ġl ua
M ulti
EN S
S rc
Ġpet ition
Ġsl ave
look ing
V ERT
ĉ vector
S pecial
h h
an ne
ĠN iger
/ views
z ing
end ant
< C
s peed
5 14
Ġ{ };ĊĊ
Begin Init
Ġf open
@ RequestMapping
End Init
Ġp unch
S ender
60 3
é Ķ
get Message
/t ypes
.P I
(' ');Ċ
oc used
( all
Ġdrop down
). __
ĠV in
.Fore ignKey
6 12
can f
ou red
ĠOrgan ization
ĠÐ °
ĠC ulture
(cl s
, _
90 2
rg ba
ìĿ ĺ
.data GridView
Ġdo zen
ĠG es
80 5
4 64
_sh ared
n ick
Ġh osp
om eter
49 5
Ġclaim ing
0 32
ib les
ri k
æĺ ¯
en ario
Ġd engan
ob b
m ont
_r ank
('/ ',
Ġap olog
P s
_p ower
ĠG ree
Ġful fill
Ġfire base
9 10
Ġf are
ĠH im
Ġbe an
âĢ¦ .
ĠS PI
_R X
Ġper ception
rel ative
comp ile
u um
ut os
a uc
ĠAs k
Ġindic ator
/ th
.set String
ĠWis consin
.D omain
Ġart ificial
De velop
ĠSar ah
Ġl ying
( search
ĠEmp ire
urr ing
æĹ¶ éĹ´
=" ${
Ġget Id
ĠP ayment
trans ition
Ġ ].
ix in
V T
- select
Ġdemonstr ated
Ġlast Name
employ ment
.get Property
Ġf ought
file Name
ĠP ers
45 2
-c ard
a str
attr s
Ġprom inent
Des ign
anc ouver
ãģĹ ãģ
ard o
se cret
Ġr ag
Ġpo ison
-m an
, omitempty
7 40
ĉ un
it zer
ĠCas ino
ĠR oss
- foot
(result s
Pl an
Ġlas er
ê¸ °
_D R
5 23
F acebook
44 9
Ġbo ards
st a
] ],
6 75
Ġt iles
S IZE
Ġ= ~
9 70
Ġprem ier
oc ab
Ġenc oded
Ġres erve
60 9
ĠAfghan istan
ĠList Node
url s
Ġsub mission
Ġne u
47 7
Ġ# +#
_P OST
Ġmo ist
ell i
ellig ent
. alert
Ã³ d
b re
ĠCol lect
Ġgraph ic
Ġlong itude
ĠPro vid
ĠCal culate
x ffff
c riteria
Ġw aters
ro ck
lo quent
ĠT rib
5 13
Ġbur st
Ġsuff ix
.Ext ensions
ish es
iv el
ĠLI KE
ĠGet ty
.Action Event
.s lf
ĠH AL
up al
E AR
5 24
ud i
_time out
U F
ĠSing apore
ĠAd vent
_int erval
cha ft
ĠE mer
Ġtele phone
ĠTur k
_ interface
ĠO wn
Ġencour aged
< Object
_T ext
ĠOnt ario
ĠApp ly
.f irebase
Ġant ib
P riority
ene z
D ays
c id
urre nce
; /
inn ed
Ñģ Ñı
Ġve z
f w
// $
att ack
45 8
Ġstart up
ain ers
.f ragment
op acity
( conn
he im
.n etwork
( stream
6 70
ĠN ON
t ol
8 30
ĠX box
ĠD S
Ġc ached
Ġprostit utas
ĠB alt
(' [
5 75
Ġno except
" '
Ġs d
. valid
_ ag
Ġr aces
48 1
Ġro d
itud es
< >(
5 44
.Pro duct
Form s
NE W
P ay
ĉ boolean
_ contact
ĠElect ric
sk ip
Ġw ur
Ġch ronic
_d river
9 40
ĠS ab
ĠU lt
ĠR ad
ST ATUS
ĠLew is
O B
Ġgift s
.Re c
TR UE
Ġint ensity
Mark er
.com pare
ff ic
C ookie
ĠB aby
ĠBig Decimal
ile t
ĠHOLD ERS
ĠL ady
Ġl ung
ĠAl abama
Ġd ess
` );Ċ
ĠB uilder
_reg ion
Ġne utral
90 9
Bo th
Ġh p
Ġh orn
Ġseg ments
ĠE C
"=> "
( rec
ĠP i
G M
Ġl aptop
Sc alar
46 3
is d
-d ialog
ĠAnd erson
Ġmist akes
70 8
ĠH an
j es
est ination
4 36
Ġprom ises
b id
ĠSc ient
G IN
ĠPer formance
b age
. users
le ading
Ġor al
G raphics
48 8
_P TR
5 18
h ang
Ġin ev
process ing
F actor
ĠN A
$ string
Ġground s
.Save Changes
c lock
9 41
cri pcion
ĠNew ton
g c
.in cludes
Ġbl ast
Ġ'- '
Ġpued e
46 9
.S ession
Ġgre p
_f inal
ĠG ay
ĠG ive
ir i
-st ar
ĠUI Image
_ep och
ub b
ent h
Ġel ite
Ġcampaign s
ĠP orno
_ assign
Prot ocol
ĠBe ing
ĠAir port
Ġconvent ional
ĠW at
ĠC I
ET A
ĠAnth ony
Ġtable t
( format
Ġconsist ently
ĠI owa
47 4
Ġav atar
0 27
.c ursor
! [
Ġh anging
H er
S uch
';ĊĊ Ċ
orge ous
() ==
Ġview Model
Ġ ãĥ
Ġel s
ĠAg ent
F etch
ap or
Ġc x
p read
ĠP ier
oe ff
6 16
S n
8 90
ĠV irtual
A pr
.Wh ite
6 15
_M OD
ĠPoint s
å¤ ±
Ġgen es
Ġv endor
Ġmain stream
< src
ĠEl izabeth
Dec oder
- state
ĠG lass
nc y
adi ans
_m on
ĠRem ote
Ġwire less
ĠM i
å ī
4 66
è¡ ¨
st age
ĠT ile
ll ib
V ariant
== Ċ
Ġgold en
(Q String
.put Extra
ĠD om
ĠAn imation
Ġinter active
if act
éĻ ¤
LE T
Ġfrequ ent
Ġ< >Ċ
F ilename
Ġs ne
ĠFoot ball
Ġr ival
Ġdis aster
ion ic
ĠD amage
. Resource
- en
ĠT ypes
get String
( board
Ġb ol
pl ain
z ym
à¸ ²
Ġsc anner
ild er
_msg s
æ ı
(int ent
Ġde struct
Ġb ust
ĠE mploy
on i
ĠUI ViewController
Ġodd s
ear er
Ge ometry
Ġy ii
_EX PORT
ĠAtt ack
Ġn iet
Ġim pression
ĠG il
_pro b
5 28
ĠC F
ĠEx perience
/pl ugins
.M ethod
Ġbelie fs
N ative
_b uild
Ġv ig
Ġr anks
cover ed
70 5
s uch
G uard
.p ack
add er
80 9
iv ia
l ng
ĠÐ² Ñĭ
55 2
T imestamp
_n ow
Ġp oker
Ġun c
Ġsh apes
-t ypes
_per iod
p k
Ġveter an
Ġson o
Ġappoint ed
over flow
.d river
_c at
ut t
pl ant
im b
ĠAc cept
Ġconc ert
ĉ node
ĉ z
? >čĊ
Ġb anned
ĉ ĠĠĠĠĠĠĠĠĠĠĠĠĠĠĠ
Ġto xic
Ġdisap pe
47 3
È Ľ
Ġgr ace
ate ful
Re ply
ĠCru z
48 6
Ġsc rap
Ġkey words
s imp
Ġmort gage
Ġcy ber
ĠEx ecute
Ġlat itude
if u
.C OM
d bo
Ġsort s
ĠG as
om ial
.L ocal
Cell s
.Re place
String s
.f it
ĠTh ird
% ",Ċ
Ġ{} ".
ĠS ony
Ġ[ :
58 5
Ġfall en
. ')Ċ
in h
ĠM C
Ġred is
C odes
Ġprofile s
h ook
Reduc er
_F UNC
Ġn avigate
str len
Ġh orm
á ŀ
ĠS R
. boot
Ġdig est
ĉ header
.find One
æ ģ
Db Type
n ia
_m erge
Ġdon ne
/ Getty
_CH AR
Ġb ands
. URL
art ial
Ġf req
Ġs ist
N g
Ġrender ing
\ Core
Widget s
ĠV A
Ġactiv ists
St e
= _
all a
St amp
Ġload s
Ġx x
ĠL earning
.M vc
u ir
(" $
Ġconnect ing
Read Only
ur u
ĠE ag
B IT
_DE L
å §
arr ass
ext ernal
ĠY OUR
ĠB rew
ĠF ive
Ġres ize
ig id
er ation
65 3
ĠÑ į
5 36
åĬ ł
0 39
ĠC atch
Ù ģ
ĠLe on
am il
.B ody
Cl ip
/ list
.b r
Edit Text
ĉ db
.G ame
(Build Context
back end
.R ed
face book
5 29
.url s
m r
rol led
---- ---
Ġinter vention
Ġretire ment
ĠK it
ĠP RE
Upper Case
ĠS ocket
Ġ: -
Ġstudy ing
ĠMet ro
ard ed
Ġconvers ations
C alled
Ġexam ine
ert ificate
.g z
-res ponsive
Ġref und
_n etwork
0 26
allow ed
em pt
Ġme als
C ategories
Ġtravel ing
Ġk g
Ġsh ame
ĠĠĠĠĠĠĠĠĠĠĠĠĠĠĠĠĠĠĠĠĠĠĠĠĠĠĠĠĠĠĠĠ ĠĠĠĠĠĠĠĠĠĠĠĠĠĠĠĠĠĠĠĠĠ
Ġexplicit ly
Ġmath ematic
ĠS uite
ĠR GB
****** /
Ġmix ture
lear ning
.t emplate
att s
w x
ĉ ctx
.p roperties
Ġdrink s
ĠE ither
set Text
.get Data
.z ip
Ġreve als
< table
.Hash Map
ĠH ur
) ");Ċ
.f ramework
ĠST ART
feed back
45 7
Ġsaf ely
. icon
config ure
. lock
.l ayers
/> .Ċ
Ġrank ed
_ impl
ĠHand les
Ġhost ed
Ġup dating
al bum
é Ŀ
Ġsh ader
Edit ors
- round
[] {
Ġse p
ĠH i
TE M
look up
.m an
_IN PUT
Ġthreat ened
_IM PORT
Ġd rops
ru it
s id
bo th
ĠEx cel
Ġj er
ord inary
ÐµÐ ¹
V IEW
re ply
Ġ) :Ċ
color s
ver ified
_T r
_p arse
Ġcon gress
6 17
P romise
int s
ĠM other
.A pi
ĠD uration
Ġfirst Name
inherit doc
ĠM ars
Ġa pr
OD Y
Ġvis its
6 31
Ġhe aling
let ters
)) );čĊ
f uture
.F ramework
Ġk iss
Ġinv olve
Ġsil ent
ad ows
Ġany body
s ch
6 90
Ġsole ly
- img
Ġprop ri
Ġin struct
Ġlic enses
Ġm eth
Ġcond em
ĠD omain
ĠHarr is
Ġs Ã¥
CE PT
B atch
@ extends
ĠCONTR IBUT
.Data Frame
47 2
_p acket
rec ision
Ġfoc using
. ht
__ ":Ċ
: Get
ĠK C
Ġpass age
Seg ment
_c enter
-z A
_B L
Ġconv in
Ġclass ified
ĠNS Mutable
_ ap
t ile
Rect angle
49 2
(n ums
v ens
ĠUI Button
ĠF eder
am o
Ġout line
ĠPar ser
Ġâ ī
ĠWork s
.S chema
Ġeng ines
6 37
56 3
_com mon
5 42
_ old
Ġset ContentView
Ġ/// <
ĠB T
f m
Ġd ivers
_ weights
em ark
ĠA CT
Ġpro portion
over lay
.dir name
ĠG it
_REF ERENCE
< >
l b
_r ule
è´ ¥
ĠPut in
Ġsleep ing
() :čĊ
Ġpres erve
Ġpar liament
ĠLook ing
Ġpick ing
ĠDis patch
Ġsl ip
ë ĵ
ĠL yn
_sign al
config uration
ĠP itt
49 1
ad en
pro cedure
Ġenthus i
f ight
ĠCons ider
Ġt orn
Conn ected
.c os
_group s
ĠTh ink
Ġdel iber
Ġres id
work ing
.column s
ĠCal led
Ġes lint
> ",
_D OWN
h ist
ĠAdv anced
Ġre wards
act ors
Ġsil ence
47 9
Ġmy th
Ġne ur
5 19
Ġa uction
.Get String
ek s
( project
59 8
ĉ msg
ĉ output
Ġcomplaint s
55 1
, S
Ġt bl
Ġ, ĊĊ
ri ors
ah ren
Ġlawy ers
re dux
_s ymbol
off ee
_RES ULT
( Name
UT C
.current Time
Ġorgan is
. arg
5 33
Ġmin im
w ick
Ġrece ives
B alance
Ġspeak s
ĠD ays
ĠBel ow
48 3
t ipo
P resent
Ġres erv
h p
Ġr it
_R IGHT
-- )
Ġchair man
78 1
D IS
ĠBO OST
Ġexper iments
68 7
__ );Ċ
Ġst amp
Ġf ert
Ġf ond
T er
el ve
ure n
+ i
end ency
Ġvirt ually
... "
ï½ ŀ
9 25
- cent
_un ique
Ġpr icing
m ic
RES H
Ġ:: :
Ġan notation
ĠC ircle
ong odb
it as
Ġ% (
( component
ĠÐ¾ Ð±
( port
-h our
. obj
L BL
Ġj ury
GB T
Ġsp y
ĠProf essional
Ġ"" ;ĊĊ
Ġstri king
Ġdiscrim ination
Ġp ays
9 37
lic t
ent es
Ġthrow ing
ĠPl ugin
( def
ĠRuntime Exception
ĠM igration
5 99
Ġd ic
b ag
on ia
Ġcor ruption
70 4
( Map
Ġpr z
.d to
Ġac quire
State ToProps
Ġlo ving
Ð¾Ð ¶
_p attern
Ġemot ions
Ġpublish er
_b e
Ġcoup les
49 8
o j
ĠCh art
Ġt rop
.t ool
Ġestablish ment
Ġd ol
65 4
Ġto wer
Ġl ane
ĠSy dney
Ġfill ing
claim ed
64 4
Ġdialog ue
Ġcon vention
book ing
pare ncy
æ ±
ĠGener ic
7 18
\ Schema
48 2
6 18
Ġr anges
/ ch
Ġpan els
Ġr uled
çĶ Ł
.t s
_s ets
Ġclean up
Pre vious
ĠAn imal
60 7
($ (
ĠA ve
oll ar
0 28
_e val
ĉ Name
(t ree
Ġ" ]
57 1
Ġdut ies
=' /
Click ed
Ġdifferent ly
ĠCl ark
Ġd it
olog ists
Ġsy nd
Ġs ends
- known
k b
ĠMod al
it ative
Ġr acing
Ġhigh lights
ĠSim on
ĠCapt ain
ä¿ ¡
ĠC B
cont in
ar an
Ġphys ics
ret ty
et al
.m d
ax ios
Ġspeak ers
Ġpre p
Ġaward ed
ì§ Ģ
ĠC orn
ĠN ature
UD IO
7 37
Ġpro j
- pre
[ u
Fe atures
Ġis Equal
B inary
s ig
Ġconf usion
5 46
5 68
ĠH at
Ġkt Ã³
.config ure
M ON
49 4
/ edit
_A dd
, true
5 41
Ġc li
Error Message
- loader
Dim ensions
ultip ly
Ġ{ !!
ĠSql Command
Ġsp oken
Ġp ics
Ġto y
( Key
ĠLo op
Ø ¨
E ATURE
in ction
_set up
w rapper
Ġt ong
c ular
O pt
.P l
=" ,
(l ength
um n
Ġch rom
Ġse vent
ĠIllegal ArgumentException
4 78
ĉ start
Ġbeg un
CE PTION
dat aset
8 25
ĠF ailed
col s
45 9
Ġkne e
im ore
.sp lice
sh ell
ig gers
Ġthem es
99 5
ĠD J
ĠAss istant
- $
May be
Ġorder ing
ĠInt elligence
ĠMass achusetts
Ġfail ing
el son
G reat
= i
.re st
Ġinv ite
-dis able
.Group Box
âĢĻ est
Ġtack le
g v
et ter
Ġ), čĊ
_r ules
.w arn
function s
ĠChrist ians
Ġback ed
Ġsl ider
Ġenjoy ing
n est
Ġh ij
_m s
// *
An notations
ĠVariable s
< V
( server
ĠOr acle
element s
Ġorgan isation
_point er
ĠHe aders
[ d
Ġdead line
iss a
Ġkn ife
ĠNAS A
ĠHe ight
78 4
ĠAs ync
Ġven ue
.d om
bour ne
ĠHaw ai
Ġmem o
ict ions
Ġsurve illance
om i
/ assets
58 7
Ġed u
Ä Ľ
Ġro ster
Ġh ired
ĠT ok
Ġpl acement
ur ations
Ġset State
ĠMag azine
Ġhor ror
T ry
Ġl ag
ĠEvery one
th ur
)) ;čĊčĊ
. return
Ġsy mp
âĸĪ âĸĪ
Ġn ights
work er
Ġa le
ennes see
.st ep
Ġsynchron ized
48 7
our i
Do es
. change
f on
.set Background
irc ular
47 6
+ -
ĠC IA
7 29
ĠJ ane
ĠSim ilar
- I
level and
Ġpros pect
_f ound
ĉc olor
.D iagnostics
Ġann ounce
Ġassum es
/ tr
Ġb d
98 7
ĠCar bon
Ġanal ys
5 64
.de st
n ik
ĠL ie
- index
Draw able
ĠT AG
Ġtri angle
_F LOAT
ĉĉ ĠĠĠĠĠ
.bl ack
v ue
cur acy
Ġaffect s
90 6
Ġsure ly
Sl ider
uk i
c ery
Ġun ter
.pro file
ord on
ĠĠĠĠĠĠĠĠĠĠĠĠĠĠĠĠĠĠĠĠĠĠĠĠĠĠĠĠĠĠĠĠ ĠĠĠĠĠĠĠĠĠĠĠĠĠĠĠĠĠĠ
le ave
Ġsmart phone
g ie
Ġcons pir
Ġt utorial
ç± »
Ġc ab
7 65
ĠSum mary
* ĊĊ
Ã¤ h
" This
Ġsl ides
" </
.de v
' <
ĠR ing
ÅĤ a
Ġk otlin
.d umps
Ġb ass
ì ĭ
PO INT
Ġ utter
ĠÃ© s
.f ull
OL L
Ġcer emony
sl ot
Ġa ims
to oltip
.s core
- dd
64 2
Ġpro x
Recogn izer
d ynamic
Ã¤ nd
/ std
D U
ĠNot Implemented
(" --
RA W
6 35
Ġeth nic
ann o
Ġch ampionship
, self
Ġaccept able
ĠS prite
[ type
Ã¼ h
ĠV K
(j Panel
5 48
it r
ë ł
aur a
Ġfac ulty
av ers
ĠRec ords
.S ecurity
Ġcon straint
.B l
U int
b alance
Ġcomm e
ĠN ik
Suppress Warnings
ĠO cean
55 4
_ Id
Data Set
Ġinsert ed
" ;čĊčĊ
âĢ ³
ipp et
Ġann iversary
Ġret ired
or ch
Ġper pet
\ Form
Ġinvol vement
_user name
ale m
_SER VICE
ĠIndian a
Ġcig aret
art z
ĠR C
Ġmeasure ments
ç½ ®
Ġaffili ate
ac ional
- section
_ controller
v ard
_ el
ĠTo y
< P
M achine
Ãº mer
ĠY eah
" You
Ġm ol
.C l
cont rollers
Ġsusp ended
++ ;ĊĊ
AT T
Ġpro jection
P adding
58 6
.m ath
68 6
f actory
04 2
Ġgam ma
() >
c ycle
ĠB ull
path s
Ġun p
Ġview DidLoad
_M odel
Ġassert True
Ġr ated
De cl
vert ed
ĠD at
b rew
Ġpoint ing
M s
ĠPoint er
) '
_n on
5 27
ĠSE C
Ġy eah
g ency
initial ize
f ly
7 11
[ pos
, g
Te le
0 34
Ġj oke
Ġcl ause
.find ById
en es
( instance
6 26
Â £
9 15
Ġs lic
_h ome
Ġ*/ }Ċ
_p ages
(s ervice
90 5
R P
ĠAm ong
.get Current
80 6
ãĤ ¹
Ġs lee
= <?
_p rop
fl ush
ĠM M
B el
Not es
Ġ*/ ĊĊĊ
0 35
Ġr h
Table s
ĠJ u
Ġ\ čĊ
lich en
ĠIns urance
] ĊĊĊ
Ġco oper
âĢĶ the
.m at
48 9
Ġf oi
(a uto
M argin
6 36
Ġres idence
55 9
ĠH istor
Ġ~ =
D i
Ġ' )Ċ
Ġex clude
.D rop
' ";Ċ
Ġc oc
_ upload
H ide
ĠUn known
Ġnormal ize
_re t
.' ĊĊ
.n odes
8 70
.Data Source
ble ms
Ġgent le
: $
' ));ĊĊ
.Res ources
â Ī
ĠT ai
V ED
ĠG un
le ans
ĠD oc
.V oid
ĠAm endment
8 66
ess ed
70 6
Ġrec ipient
. Node
ov o
Ġalign Items
ĠUn ity
ĠR ome
b urn
Ġvolt age
ĠSH A
5 34
57 2
ĠGO OD
help ers
/** */
Ġelim inate
w ap
_ angle
Ġrefuge es
ĉassert Equals
Ġpro be
(' ../../
y our
Ġmer ch
UB LE
ĉ response
_DE F
Ġen vironments
ous ing
Ġrestrict ed
ĠCONTRIBUT ORS
6 21
Ġcompan ion
áº £
p ow
urt le
b ie
.Per form
= n
red is
Ġdiv ide
Ġcollect ive
D iff
D ynamic
is Selected
ast ype
ĠL ot
ĠSt atement
icip ant
ak h
5 17
Ġserial izer
_C FG
av al
Ġview ers
ĠF O
O cc
Ġrob ust
ĠM it
_ AND
Trans ition
un ate
Ġpr ide
Ġdram atic
ĠP ages
_t uple
Ġcop ied
m n
Ġ ought
Ġequal ity
_h as
_W R
57 3
em i
Ġsur ge
il lo
() }
08 1
Ġper f
9 21
ul k
Ġinvest ments
78 5
Ġgener ations
Ġres ort
Ġtrust ed
_f req
Ġform a
ATION S
ĠH u
ĠGr ad
_c pu
Ġ" ,Ċ
res se
( **
Ġhere by
Ġl ake
_ST ACK
ĠB ureau
Ġsustain able
ĠP E
Ġde i
ĠAn swer
Pl us
/ web
Ġst er
Ġmount ed
_c lear
f ono
ian ces
_f ind
Ġconf used
_b in
DE CL
Ġinstant ly
U IT
_D O
Set up
ke e
_print f
_st mt
ĠSte am
pro f
l v
Ġsol ving
l ator
ot ypes
And roid
_ escape
Le ave
.get Time
8 11
if s
Ġc ov
ĠClass ic
-d ark
5 26
Dispatch er
- gray
ĠPalestin ian
.de ep
ĠIn ject
Ġref lection
5 38
Ġhyp o
con structor
.app lication
yst er
â ķ
s chool
ĠC ow
59 3
Ġfoot age
- ins
Ġ/** <
at om
Ġprof its
9 23
Ġbook ing
_th reshold
ĠL iver
Ġcitiz en
b x
ĠSt orm
ĠCor p
Ġw ider
")) {Ċ
_A CTION
i ors
ais es
: none
Ġc ited
" fmt
A ug
com b
Ġwh ites
Ġs ess
^ ^
igh th
Ġt ang
_C AP
6 14
Ġinter actions
49 7
Ġg ard
64 6
Ġpr ize
64 7
af ka
T ri
\E loquent
ĠD ynamic
çĲ Ĩ
g p
Ġreal m
ĠN i
ĠEd ward
Ġident ification
Ġphys ically
æľ ¬
Ġpick s
-f riendly
< i
if ice
_A P
Log ged
55 3
} ".
/ utils
Ġ ....
ENT IAL
( Action
'] );ĊĊ
Ġprotest s
ol ine
_RE TURN
Ġpop ulations
ĠR ain
d up
or ial
ĠAuthor ity
_ex pr
0 75
. us
Ġcor rupt
ĉ import
< char
ĠLE FT
Ġcabin et
Ġneighb our
ĠSql Parameter
atter ed
em ia
Ġreview ed
ĠH ello
block s
( process
99 7
Ġobserv ation
r ating
.g lobal
Ġpre ference
.pre pare
Ġdo zens
Work er
Ġcalc ulation
ĠT ower
air y
ĠIS O
Ġhuman ity
.as InstanceOf
7 12
Ġd ys
Ġp ier
ig ue
Ġassoci ate
Ġint im
not ify
({ },
8 28
ĠRep resent
ph et
se udo
ëĭ Īëĭ¤
.P osition
Ġclos ure
( class
ĉ time
ĠOr ange
_ ops
Ġpop up
ĠIm pro
_se cret
ĠE u
.set Layout
ul ly
Ġscre w
ĠS ized
ĠCOM P
Ġnot ifications
Trans fer
E mitter
( old
let ic
49 3
Ġ- ĊĊ
Ġpan ic
7 15
ĠL CD
r ules
Ġaff airs
ĠF ill
_IR Q
9 12
att achment
Ġv om
< button
5 95
Ġtext s
Ġactiv ated
. access
( reader
T em
Ġcor on
ro ph
DM IN
Ġemerg ed
Ġinfl ater
ĠIndepend ent
or ious
ĠDel hi
67 2
Ġg lyphicon
ĠCar l
S i
Ġexperiment al
.b ar
I AN
Ġsql ite
cc iÃ³n
90 4
_B ACK
, name
h ort
Ġt ens
5 49
ê ³
us ive
Ġgenu ine
Ġbu ck
/ div
. room
_NE W
est ado
ĠAr k
oc ols
.g enerate
t ouch
f ixed
Ġ' (
Ġref erring
Ġoverwhel ming
( let
Ġf ue
6 23
_EN V
w oman
F igure
an imate
ĠM ort
Ġlong est
col n
T M
: _
ri el
, N
ĠR AM
Ġjustify Content
Ġact ively
/ public
Ġë °
G iven
OT AL
å¤± è´¥
Se quential
Ġsup plement
. ab
Ġc ategor
} },Ċ
ah an
' un
os ity
Ġaccompl ish
Util ities
.view s
.c n
ce il
ĠC BD
ĠR F
PE G
ĠG ift
AY S
ĠW IN
pan ied
Ġ ÅŁ
Ġob server
Ġsm ell
Ġ{ :
Link ed
> [Ċ
ol er
Ġlib ert
Ġ` Ċ
Ġw enn
l ated
Ġimm une
( Node
ĠPro blem
ĠA bs
log s
Ġ ../
ĠA DC
Ġ}} ">Ċ
> ');Ċ
= b
ĠW ind
lah oma
Ġalloc ate
or ian
Ġpres cription
- quality
ĠMay or
8 55
in ely
end foreach
ĠCom plex
k om
70 9
T Y
7 90
] ].
. Style
_m any
',' $
Ġbar rier
ĠF etch
ĠMar vel
Ġres ist
Ð¾Ð³ Ð¾
b idden
ĠRun nable
: false
8 99
Ġbuild s
ĠSt age
Ġd ub
emp o
.s ite
55 8
;ĊĊ ĊĊ
99 4
ĠDen ver
Ġre vel
Ġtrigger ed
Ġd ice
_f ail
Ġg c
8 33
58 9
ĉ X
ĠTh rowable
7 75
.r outer
ĠRev olution
ÑĢ Ð°
_N ON
0 55
Ł ¥
5 78
Ġel der
Ġab road
ĠÐ µ
ĠAd ult
bl r
g lyphicon
6 13
Ġprom oting
Ġ iz
ĠS olid
64 5
_lo ader
ear ly
.en abled
- edit
ĠU L
_ play
ĠInt errupt
Ġadvant ages
uc le
Ġmechan ical
.table LayoutPanel
ĠWork ing
Ġan onymous
R ating
ig ious
_ph one
.addAction Listener
Ġfr an
und en
Ġ*) &
_ bool
ul ative
Ġcon e
ĠM ult
Ġm Ã¶
ĠFor ward
] ):Ċ
Ġconvin ced
act ed
64 3
ãģ ĵ
ĠConfig ure
Ġce iling
D er
Ġpass engers
Group s
Ġsoc cer
/ W
avi ors
sw ith
ĠZ one
. Options
ĠM om
ied er
Array s
Ġtreat ments
Ġprotect ing
f ac
Ġpick le
Button Item
7 13
Ġblock ing
str ar
Ã ²
ĠEx port
Ġth rew
ott a
ĠB ASE
.w s
.LE ADING
order By
_d elay
ĠP u
.d ll
ĠCh oose
99 2
Pol ice
ĠBE GIN
box es
Ġdiam ond
, l
Ġ ĉĉĉ
Ġcur ious
6 24
t v
Ġerot ische
ack ages
ĉ Set
T ick
.b order
static method
Ġch er
in voice
Ġcr u
Ġdef ect
_m etadata
re lation
ik an
[ N
(Q t
( Base
æģ ¯
be at
ĠEm pty
ĉ o
_sh ift
Ġreg ret
7 22
Th ose
C ent
ĠPort ug
ĠIs lands
ĠT IME
Man agement
99 6
-s p
5 39
Ãª me
Ġnot ion
un ifu
P K
8 26
è¡ Į
ĠCUR LOPT
\" \
U V
ç º
d ra
c ou
= `
ĠD estroy
r p
.c ancel
G G
r untime
ĠV ue
Ġprogress ive
/s ervices
Ġrun ner
_FR AME
.ToolStrip MenuItem
Ġ' ,'
d elay
= utf
Ġscreen ing
Ġpull ing
om as
Ġan th
- new
/ local
Ġi Pad
Ġt witter
Ġd ying
Ġhe aven
ĠU Int
ĠSen ator
Ġpres um
ĠWalk er
Ġover come
ete ction
Ġemb arrass
Ch ina
6 39
In clude
RO LL
Ġdata Type
D avid
à¸ £
lo p
-m onth
Ġsc ar
ĠS afe
Ġ ****************************************************************
Ġaccess ories
Ġr amp
_U SE
Ġcontr ad
)) ]Ċ
Ġpre st
ĠH R
ĠR ap
Ġus ize
Ġcap ability
Ġc ort
- next
07 7
6 27
Ġbur den
8 22
_read er
Ġ@ @
reg ular
ĠK a
0 36
M AN
Ġa str
Ġ' ')Ċ
Ġf ed
Ġpars ing
ĠY ears
Ġbro ker
": {"
Ġa kt
In ventory
abe led
Ġarg parse
****** *Ċ
vers ation
Ġc ord
ĠT i
Ġhope fully
Ġa h
ver b
Ġst olen
. Entry
Ġexpect ing
O rientation
Ġpower ed
Ġp ersist
ĠĠĠĠĠĠĠĠĠĠĠĠĠĠĠĠĠĠĠĠĠĠĠĠĠĠĠĠĠĠĠĠ ĠĠĠĠĠĠĠĠĠĠĠĠĠĠĠĠĠĠĠĠĠĠĠĠĠĠĠĠĠĠĠĠĠĠĠĠĠĠĠ
'] );
')) ,Ċ
ĠC ash
ĉ item
8 18
gr ades
rop ol
b asic
Ġ" );čĊ
Ġaw ards
(r ange
- all
ĠIB Outlet
ĠInd eed
---------------------------------------------------------------- ------------
Ġstom ach
Ġfl ower
Ġs ew
_t imes
av is
Q String
ĠR outes
_pro t
Ġcom edy
Ġlog out
Ġwood en
Ġpost er
p iece
.J oin
ĠP ok
cel ona
mut ex
;čĊ čĊčĊ
Ġstri kes
78 7
Load ed
) arg
es a
Un ited
E p
PE LL
80 7
ĠAtl antic
ul let
65 2
app le
Ġsett led
a con
Ġprint er
ĠG C
å® ļ
Ġrender ed
, âĢĻ
he it
s ocial
. ge
7 14
ĠR ick
ĠUt ah
g ot
on ical
ĠSc roll
ĠSc iences
Ġj ug
Ġam pl
ent i
LE FT
Ġt abs
Ġenorm ous
.get Key
loc ate
. EX
.st orage
.W e
Ġto ast
ĠAdd itionally
88 2
ĠN OW
5 47
_ UPDATE
Ġtrans ferred
th a
.D isplay
_ ui
ID EO
Ġmeaning ful
ĠMos cow
, this
ĠVict oria
æĶ ¹
ĠÐ Ł
.st ack
ĠB arn
pared Statement
: string
Ġb ij
ĠST ATE
Ġemploy ers
ĉ input
( |
Ġle x
in voke
ĉ num
++ ,
at ial
ors es
Ġfor k
_t xt
ĠAnton io
Ġ( <
aver se
Ġdev ast
ãĢ Ģ
.D ec
ĠG ard
/ ui
. %
tr i
Ġrol led
Value Pair
itt en
ĠTh er
Ġv rou
ĠFl ow
ĠFin ance
ĠCom b
H C
.set Visible
is l
Ġp k
77 3
Ġup set
( raw
ĠV ice
e atures
ĠL ang
0 29
Look ing
7 67
ĠA ST
Ġtri ps
ĠJust in
b rowser
=" '.$
. vertices
8 21
- co
}/ {
Ġ? ,
ĠD omin
ĠBel g
" <
Ġsup pose
add y
Ġwalk s
6 88
ERR U
_f ilters
Pre ferred
sc ene
Ðµ Ñģ
ĠAff airs
Ġ"# {
Ġon Submit
Ġstock s
/ view
g ree
- get
90 3
h it
J o
.get C
7 25
Initial ized
ÑĤ Ð¸
c uts
( Type
ĠAg reement
ĠViet nam
Ġ/* !
Ġp izza
- view
_ em
Ġl hs
Ġm uy
ĠId ent
ĠF riends
06 1
Ġab und
_A D
.t imestamp
- '
Ġd uplicate
Ġhun ting
Ġregul atory
ia o
am ous
ĠEnt ertainment
[ A
iat ric
_CL IENT
ĠK ids
/p kg
B reak
)) );ĊĊ
ĠSh ape
Ġrel ating
Int errupt
able Opacity
emb re
Ġmyst ery
Ġjournal ists
rit able
.L ink
Ġstop ping
CRE T
.D B
Ġpopular ity
Ġg ew
Ġim pr
set Value
FL AG
ĉm ax
Ġb ake
w y
ĠEcon omic
Ġen contr
Ġf name
/ de
R ank
Ġbug s
.s m
Ġmed ian
D OWN
ĠS ure
At Index
ĠD ick
Ġ( __
.d elta
F r
Ġsuggest ing
ĠRec yclerView
, e
ST ART
/************************************************************************ ****
xf ord
Ġrece ipt
CL AIM
read only
9 68
Ġeng aging
6 19
C a
as ma
Ġens uring
Eng lish
ĠV ancouver
hy th
Ġpurch asing
ĠP I
. word
(s p
.h ome
: def
Ġg ig
57 4
67 1
ĠV e
for um
ĠM itch
B ay
_F L
65 1
Ġs oll
5 77
_column s
Ġminor ity
b ird
Ġhand ed
SS L
ST AT
Ġnerv ous
ĥ ½
Ġfile Path
CRE ATE
A w
Ġp ens
8 35
se ed
ĠCom pute
ol k
59 4
ĠAs set
re ach
'), čĊ
n avigation
L F
/ util
ĠP ub
Ġâ Ķ
c ion
## Ċ
07 2
II I
Tag Name
Ġam id
per mission
if iable
xFFFF FFFF
Ð½ Ð¸
.B uffer
_ irq
d ark
Ġret val
.f ire
produ ction
.list en
ĠWe ather
Ġbuy ers
. ne
er p
ĠP ent
6 99
Ġw elfare
Ġpage Size
ĠSt adium
ert a
Ġle v
amp a
P ager
66 5
Ġcharg ing
ĠNet flix
| null
_r andom
.x path
Ġst ere
ĠIS IS
pons es
( loc
5 66
ey ond
ĠOff icial
65 7
ĠMary land
Data Type
_p ar
{ },
ĠEn joy
7 27
_SH IFT
ĠA wards
_ENT RY
Ġseem ingly
entic ate
Ġheart s
58 3
_ ;ĊĊ
ĠH IV
Ġindiv id
ĠFl ag
_ ctrl
ĠC allback
, z
ĠG PU
ĉ obj
ĠPh oenix
ĠB US
90 7
Ġrub ber
_A UTH
ĠSol utions
( location
Variable s
.set Enabled
_h igh
W O
G esture
Ġre try
Ġobject ForKey
allow een
Ġm os
ĠC ele
Ġik ke
(c ell
ĠM ODE
ren a
Ġdescri bing
64 1
Ġph i
Ġr d
Ġdes erve
Ġwhe els
å¸ Ĥ
Ġcrit ics
75 5
N amespace
ĠF ra
Ġ ĊĊĊĊ
Ġall a
Ġrequ iring
æľ Ł
ut ation
Ġdelay ed
Ġadministr ative
Ġb ay
.h idden
T ex
05 1
Ġbound aries
Ġ] );ĊĊ
ĠFollow ing
~ /
F i
_con v
_T ITLE
Ġdes de
ICollection View
Ali as
Ġb ite
pat ient
_COMM AND
Com pleted
ĉ elif
( <
B usiness
ĠP ool
Ġpurs ue
ĠB an
_st eps
_DE CL
um ble
Ġcom bo
ĠL ayer
.x r
Ġd up
-------- -
6 28
Ġmod ifier
ro b
re z
69 6
Ġath letes
Us ed
w ear
8 15
Ġlegit imate
Ġ" ĊĊ
Ġh v
St d
0 37
ĠH old
Ġsurv iv
ĠAll iance
ĠEar ly
7 78
Beh avior
(f ont
/lib s
Ġrect angle
Ġs inger
Ġam p
Equal To
Ġ" ."
Ġgirl friend
å ±
line ar
obs erv
Ġpi Ã¹
Ġcomple ment
With Value
(p assword
t ake
Bl ank
ĠCom par
' ",
_p olicy
m ongoose
_FA ILED
.re port
R atio
.Perform Layout
7 47
us able
m ers
_re nder
PE ED
77 2
Ġles b
ĉ E
_t ool
Ġl adies
90 8
Ð¾ Ñģ
)) ))Ċ
;; ;;
.d ot
Ġn est
pe ak
uk kit
ec a
_S W
Ġ& (
ĠOk lahoma
Ġbank ing
5 69
ĠN intendo
75 2
Ġreprodu ce
_element s
_m ac
pro xy
Ġremark able
}/ ${
Ġout s
.has Next
M ODE
65 8
Ġan ime
.con n
Un ique
D om
Ġimportant ly
itt y
Ġju ice
T w
ĠPart ners
Ġattack ing
Ġport able
am iento
.P ictureBox
.g en
Ġopt imal
58 2
Ġre cre
Ġjournal ist
ĠEx tract
ĠMore over
Ġmargin Top
.A p
Ġf iring
Na N
ĉ template
Ð°Ð ´
. En
Ġdef ence
ĠT el
il en
j an
= data
ĠU rl
ĠRe uters
(t otal
ĠFif th
Ġess ays
Ġinterpret ation
Ġchar ity
ĠR ules
Ġsub section
st yled
az er
l ags
L IST
Ġupload ed
Ġtr ash
Ġreg istr
Ġsell er
>' ;čĊ
Ġstart Time
ç Ļ
s y
(Http ServletRequest
Ġtr ap
G C
Ġembed ded
Ġsurround ed
8 16
im its
T X
yl inder
68 5
ĠF al
Ġsent ences
ĠJ a
IF ICATION
we apon
ov ation
Ġco at
Ġinter pol
Ġl ips
ĠK y
Ġv ectors
_ am
Ġint ake
.w orld
Ġin box
ĠM AC
_ ab
(name of
6 33
Ġent ert
Ġgather ing
ĠS IM
++ .
ny a
' }}
ĠUP DATE
Ġp ac
( html
ĠS ant
i ating
ĠIde as
Ġspr ay
ĠH art
Ġver ification
ades h
/ modules
ĠM ind
ĠSized Box
Ġsh elter
Ġher oes
att y
Ġcert ified
s j
ĠÃª tre
ÅĤ o
Ġpublish ing
ĠMal ays
.get User
ĠPro vider
ĠLinked List
ĠB or
RO UND
d id
t ain
p ire
ĠJ enn
t el
and e
75 7
_f ront
ĠMc G
Test Method
à¸ Ń
Ġoccasion ally
ĠW ales
Ġexerc ises
ĠÐ Ĵ
0 45
- plus
Ġvalid ator
Ġpr ayer
L ATED
_ author
Ġlab our
++ Ċ
-e quiv
ĠG PL
Ġface book
s imple
g ly
Process or
ip y
7 44
Ġ* >
64 8
Ġcle ared
ĠP ush
8 58
Ġpen is
Struct ure
li j
ĠM organ
Ġhand ful
" .Ċ
98 4
| \
Ġ ********************************
ĠA qu
58 4
_ IC
.load s
Ġm eter
ĠMar ine
:: {
ĠT S
77 6
ĠArray s
.T itle
GR AM
ter min
Ġco inc
El se
_st ates
-r un
m embers
78 2
ast ro
0 66
Ġon Press
Ġbe ings
Ġabandon ed
Ġtax p
own ers
.m ode
Ġdiagn osis
Ġ_ Ċ
ĠK night
ĉ A
Ġob serve
), '
8 23
! ")Ċ
ĠPar a
Ġvari ation
( False
ĠAnt i
Ġg ri
Ġhome less
? v
Ġbe z
.S erver
re lease
ĠP atri
Ġchar s
Ġrank ing
activ ation
58 1
Ġw ides
q r
.S ql
ac ular
ĠB ot
_s ync
Ġhapp iness
Ġvolunte ers
8 77
Ġs its
/ <
[ e
(file Name
Ġcap ac
8 32
ĠMar ia
f ather
Ġgr am
* i
Ġcas o
_d raw
ĠR aw
ĠIter ator
6 64
ĠP adding
9 24
P D
BO X
ĠS PECIAL
Ġfe cha
Ġv ide
ĠLe ader
ä» ¥
$ (".
Ġdiam eter
Ġm ild
7 45
Ġrock s
app ings
0 48
d irectory
55 7
.fl ush
ĠJ ess
UN IT
ĠP ear
Ġmand atory
S ur
q t
Ġstream s
Ġco operation
ĠS ac
Ġche aper
ĉ ch
an imation
f are
( height
( True
N Y
Ġw rest
Ġpoll s
Ġencounter ed
ĠMarket able
_P ASSWORD
7 16
_SE LECT
ĠArab ia
_c lock
Ġv oy
ĠÐ¸ Ð·
Ġst ir
is ible
-e ffect
.c reated
Ġto ys
ĠTrad able
Ġr ust
Ġstr cpy
_t imestamp
Ġtalent ed
, null
ĠJ obs
ĠPort land
Ġweak ness
Th row
ĠAng el
ä¿ ®
75 4
Ġun cert
ï¼ī Ċ
ĠìĿ ´
Wh ich
Ġ[- ]:
S omething
Ġconv icted
k le
ed ium
Ġbranch es
Ġb ases
ç ®
Ġcomplex ity
ĠF ig
. reshape
$ db
7 36
_CON ST
ĠT es
.r untime
Ġden y
ĠB SD
Ġk r
h att
ĠSt atic
Ġunivers ities
Re place
Ġdro ve
Ġad oles
_pl ugin
ĠL GBT
Ġt ex
du ction
75 1
7 99
ED I
ĠT ed
_ URI
Ġre ception
art en
.S ingle
r ice
sc ious
8 43
_b g
Ġw ages
ĠS ervlet
UIL ayout
Ġform atted
.M od
< class
is en
Ġrepresent atives
"] =
Ġport al
ĠHun ter
Ġh iring
__ )Ċ
ric ulum
u o
li est
Ġt ears
L at
Ġliter al
.In sert
Ġc urs
ĠCom put
Ġterror ism
Ġswe ep
Ġ[] čĊ
Ġpass enger
Ġeast ern
Ġtwe ets
Ġoper ated
w nd
ĠS yn
.t ools
ĠW M
ul ates
Ġbacter ia
( bytes
.set Data
Ġvis ibility
// ================================================================
el m
Ġgener ating
Ġm v
Ġk h
j en
/ search
Ġaccount ing
se gment
act ic
. ip
Ġdeploy ment
Ġfoot er
> ',Ċ
Ġexpand ing
ĠHam ilton
ĠCon trib
.T ables
7 28
Act iv
H H
ocom merce
_ ;
Ġamong st
ow ing
8 59
ĠC old
AP H
Ġpsych ological
_t ensor
Ġpack aging
ĠSw eden
Ġp are
Ġag gregate
Ġmoder ate
86 2
_h and
Ġdesign ated
Ġdr um
Ġget User
ĠC reek
_s cope
ĠTrans fer
ĠM arg
Ġfight ers
W nd
ĠS el
ĠLa unch
Ġemerg ing
if rame
ĠAdd itional
Ġf ears
Ġsat ellite
_ :
Ġdis posing
Get Value
Http Post
AT IVE
ul ary
View s
Ġatt ending
ĠT ennessee
ĠM ission
Ġmedic ation
ĠW y
ĠAn na
Ø ¹
ĠVert ex
.t ypes
O rgan
.DataGridView TextBoxColumn
ĠR S
Ġtemp o
( App
89 2
Version UID
.p oint
ĠD utch
H ours
L U
Ġqu oted
.b uilder
ĠPer fect
ĠAl ways
_t wo
Ġexclus ively
ĠC ra
ific ar
ĠA WS
ing ham
com plex
k ernel
Ġgr avity
Ġw i
05 2
Ġover view
66 1
ĠW ant
ĠW P
( sh
. rotation
St ates
ĠTe en
_com ponents
ì Īĺ
Re ceived
Ġly rics
rit es
ĉĉĉĉĉ Ġ
-A merican
[ num
/ python
ĠU ART
Ġapp le
ĠJon athan
Ġmoment um
à¸ ±
Ĥ ¹
Ġm ich
and ra
Ġbi ological
ĠM ens
Ġ% %
else a
ĠMex ican
.rand int
Ġt ale
ĠValid ate
Ġdefe ated
.ht m
Ġcop per
= /
cos ystem
Ġr ip
dec imal
.V ISIBLE
ĠT a
ĉĉĉĉĉĉĉĉ ĉĉĉĉĉĉ
Ġdownload ed
en vironment
Ġnom ine
build ing
ĠSp ot
ipher al
Ġal to
qu et
ĠF T
/ get
/m aster
W IN
åħ ĥ
67 6
W est
arg c
Ġprodu cers
ĠM uch
_st orage
cred it
CON T
Ġv et
Ġvo ices
(' ',
Ġinstr uments
66 2
ĠM SG
es se
re pository
om ics
Ġdeal er
St ill
Ġb anner
asc ii
Ġrem arks
[ js
Ġshort er
g ulp
Ġmyst er
Ġk un
ĠB ird
Ġti ene
7 88
n ut
ĠU m
Ġw ise
Y eah
INE SS
04 6
_b egin
- heading
C ourse
Ġ čĊčĊ
omb ie
grad ed
ĠG PS
Ġ Å¼e
F it
c aption
Ã¶ n
/ image
l ia
(m od
Ġle ak
en za
6 29
/ H
ĠH appy
99 3
D ist
n x
ĠGovern or
(l ast
te acher
ĠS ent
s upport
8 38
ject ory
Ġ Ùħ
Reg istration
06 3
ĠGr ay
, false
Ġadjust ed
( settings
< R
ĠM age
Ġpl aint
_ )Ċ
ĉ it
omet ric
. bootstrap
Ġcar ries
I p
Ġ! $
Ġswim ming
ĠMar io
ĠQuest ions
P ACE
æĸ ¹
e or
}} "
Ġo ven
ĠK on
Ġwis dom
Ġac quisition
ess ment
ag ine
Ġexpress ions
Sequential Group
F ront
ul pt
aw k
'] )ĊĊ
8 13
7 32
_ AR
Ġanal og
ul in
_PR INT
ĠL G
Ġb lob
ĠFurther more
_com ponent
ĠC ole
L AN
SCRI PTION
Ġl ap
icens ing
_TIME OUT
ĠF ro
Ġli ability
Ġcom posed
6 34
.create SequentialGroup
_p erson
Ġbe am
ĉ ĠĠĠĠĠĠĠĠ
ĠNot Found
68 4
. 'Ċ
ÃŃ s
.Text View
P DF
Ġk ar
__ ('
Ġ" :"
_m essages
Ġhar vest
.h istory
> 'Ċ
-f old
æ Ĭ
ĠBet ter
Ġ"\ <
sp acing
Ġfurn ished
9 13
os er
] }Ċ
Ġ$ "
p ull
.P ost
9 19
( ip
Ĺ ı
.f ront
nt e
ĠF M
g uid
8 44
Ġnegot iations
agon al
9 34
Ġtrem end
unge on
Ad v
car ousel
ÃŁ e
_DE SC
Ġham mer
áº Ń
ĠĠĠĠĠĠĠĠ ĊĊ
-c ore
-s ervice
Ġcorn ers
ĠS F
p red
> A
ĠJ Label
Ġrom antic
Ġtestim ony
os c
ĠGener ation
as ures
_int ernal
Ġprint s
Ġ] )Ċ
ĠC leveland
re po
D isc
6 77
76 2
Ġ" >Ċ
ï¿½ï¿½ ï¿½ï¿½
Ġne arest
59 1
_t b
( require
EO F
- child
Ġbu dd
.Xtra Editors
alt ies
7 23
\": \"
W ords
9 17
Ġloc ally
Ġpurch ases
6 95
Draw er
ex tract
Ġexec ut
} '.
user data
Ġfocus es
-min ute
7 64
ĠP ublish
og o
Ġmount ains
B ot
} >{
Ġt ension
ro d
m esh
Ġtransform ed
, R
() }Ċ
.l ong
Ġg orgeous
ĠS chedule
Ġol dest
Ġsub process
( IN
y ect
ĠCo oper
arn ess
ĠMon itor
.p art
97 2
ĠN BC
66 8
Ġc otton
Ġh ol
7 26
Ġrg ba
ĠB io
Cont inue
P od
Ġparticip ating
clus ions
(By Val
7 34
Ã ¬
ĠH OW
_set opt
Ġaccompany ing
09 1
at on
Ġ/ \
ĠAuth entication
i Ã©n
ĠBar ack
/* .
Ġe ager
ĠC ancel
< lemma
ep h
ĉ window
Ġinc idents
75 6
), (
.D es
ib e
ĠFunction s
Ġhosp itals
0 38
Ġo xygen
root Scope
Ġd rew
ĉ request
not ice
ak u
am ents
f ar
97 3
77 4
Ġprec ise
_w rapper
Ġlisten ers
A Z
.b ounds
ĠA verage
field set
_ axis
Ġexam ination
' .Ċ
mon s
++) {čĊ
ĠForm s
íķ ľ
9 16
Cpp Method
_tr ace
Ġengine er
66 3
ĠFl at
Ġrev ision
Ġhe ating
6 38
/ profile
.r u
p riority
Ġin fer
_ST REAM
Ġ* )(
> $
OLE AN
OK IE
IB ILITY
U AGE
ĠSur vey
07 1
Ġres ign
w ing
Ġsecre ts
Ġch ips
JSON Object
Des ktop
59 6
_SY MBOL
(res ource
Ġ</ >Ċ
Ġnew est
ul i
Ġdes ert
Ġd ip
ĠP ow
Ġequ ation
Ġposs ibilities
ĠF ed
os ph
Ġ[ %
Ġb ubble
ether lands
79 3
Ġc ement
. auto
_ AN
âĢĻ .
se lection
ĠB ond
9 88
D en
- O
.get Type
8 96
.W indow
p res
Ġsw inger
" })Ċ
Ġp ip
Ġm ice
Ġcomp ound
- plugin
ik o
Ġcent uries
ic ular
-in line
ĉ key
> \<
EN SION
Ġ[ čĊ
Ġprecis ely
ĠÃ©t Ã©
ĠP ast
ĠCam bridge
-f ull
Ġanaly ze
ĠSte ven
Ġn em
d ue
ore n
Ġmus cles
ij ing
8 52
/ -
ĠKenn edy
59 7
R M
oss ible
Ġact ress
Ġd olor
9 14
å½ ķ
Ne ed
.t oggle
ĠR ace
w ers
.m aterial
ĠD ue
ĠP el
# print
Ġindepend ence
ex us
Sh adow
Ġenc oder
( level
ĠSw ift
.d oc
_se lection
95 2
Ġserial VersionUID
9 45
Label s
Ġperform ances
.T ag
ĠN HL
iz en
/ UIKit
99 1
_CONT ROL
Ġearn ings
9 75
ĠAl t
_H ANDLE
C tx
Ġpers u
Ġtr an
ç ¨
_CH ANNEL
Ġsatisf action
ĠG P
7 69
io x
m itt
land o
Ġp ig
inal s
Ãª ncia
7 31
S urface
ĠU UID
Ġbenef icial
Ġsequ ences
ĉmem set
Ġmag ical
Â «
Ġw orn
AS C
pop up
COM P
_b efore
en ess
U i
L es
.re quire
.Serial izable
add Gap
Ġauthor ization
08 5
.py plot
urr ay
lat itude
8 45
fr ames
aj s
Ġcomp ass
Ġobserv ations
_s up
.en viron
Ġtri ple
ĠRub y
Ġdr ain
_F ILTER
S an
UM P
Null Exception
ĠG ab
ow e
ĠTurk ish
_se quence
ĠGr ant
uel a
Ġw o
Ġc ube
i q
Ġdis orders
Ġextra ordinary
Ġc trl
ĠSe q
ent r
8 65
Ġsan ctions
9 49
uts ch
Re ports
Ġin herit
Per iod
Ġphot ography
ĠF ramework
Ġspecial ist
Ġ? ĊĊ
_ selected
.P layer
Ġal location
( account
Ġstruct ural
v able
- offset
.App CompatActivity
Ð°Ð ¼
.Add WithValue
Ġicon s
Ġshut down
_l ow
ĠCom pare
ĠC e
= head
l am
.p redict
_DE C
ĠS leep
ĠGr atis
Ġsuggest ion
ĠD EL
ca ff
av irus
No thing
ŀ ĭ
Ġwides pread
Ġmechan isms
Ġtext Align
occ up
ĠR ail
: NS
Ġf iber
Ġm k
Ġv intage
-l ong
.re duce
. Entities
( record
Ġple asant
FR ING
.C ells
OT T
ĉelse if
64 9
7 24
_con firm
ĠView Group
s ym
Ġpr ay
Ġsus pected
Cont ains
98 3
Ġb orders
Ġcomponent Did
ASS ERT
Ġinf inite
- order
Ġh ello
ĠGr ade
.currentTime Millis
apol is
z h
ĉ Object
: \\
H O
val uation
Ġvoc ab
7 19
Ġcou pon
atab ases
.Get Type
L earn
79 2
] ="
ĠG ary
ot ive
Ġas h
Ġb ib
XX XX
Ġbal anced
VAL UE
ĠN at
_A d
< E
åĮ º
ĠMethod Info
8 97
L IB
Ġconsider able
ĠInd ustry
test s
.set Title
ĠBl uetooth
Ġm apped
ĠBru ce
ĠMain Window
ĉ status
Ġr az
ĠM and
Ġclass ification
Per missions
9 69
Ġ---------------------------------------------------------------- ------------
Ġcontain ers
: set
_x ml
Ġwh ilst
Th rough
Ġval ign
Ġworld s
C ORD
ED IA
ÑĢ Ð¾Ð²
Ġsp are
ĠH ad
ĠDE F
(p tr
Ġwarm ing
8 98
à¤ ¾
Ġcons ensus
ag ne
CT L
Ġì ķ
.M ain
web Element
Ġp ist
Fl ash
App end
.tw img
T ap
Ġveget ables
al g
05 8
.s ample
Ġcoach ing
( ind
Cell Value
Check Box
ĠH ell
RO OT
7 96
Ġst adium
Ġinvestig ating
) %
st ed
9 65
ĠW riting
Ġê ²
Ġun o
Ġ{{ --
Ġco ords
Ġun ser
organ ization
ĠCr ime
ĠDemocr at
57 9
Ġv in
/ file
0 78
- api
ĠA y
Ġfund ed
ĠBre xit
ĠG h
ent ina
c ases
Ġd ash
Ġ!! }Ċ
H I
Off ice
Ġcapt ain
Ġwor ship
\ C
7 33
8 51
Ġglo be
_ board
Ġbab ies
87 6
Ġconsec utive
Ġenh anced
ere um
ĠAd vis
Ġgr ain
77 1
Ġc raw
ancell ationToken
. alpha
_W ITH
ĠO tt
ĠC ool
.b atch
Ġver ified
(c allback
Ġreg ards
68 3
ĠInt Ptr
ouch er
Ġk in
Ġtou ched
it Ãł
ath on
Ġadj acent
Ġaccom panied
LE AR
Ġim plies
Ġh ill
ĠBalt imore
=" -
Fin ally
88 3
S am
ic opt
Ġs od
Ġm aj
ĠSh ipping
Ġget All
Ġcoach es
Ġdon ations
il ot
ĠT ar
c err
Ġbad ge
Ġmark ers
ĠR and
ais ed
iss ance
Ġexpl oring
8 27
uc ed
ĠIndones ia
Ġbene ath
Ġmagn etic
Ġm useum
match Condition
Ġdis rupt
Ġrem ind
ĠT M
Ġ/ ><
Ġf ool
Ġes k
.N ull
ĠD ies
_OUT PUT
_TYP ED
Ġpaint ed
67 3
7 35
Ġsoph istic
ĠB ear
* n
_P ACK
Ġdeliver ing
ĠC OUNT
åį ķ
Ġj eg
-c ar
f name
Ġr anging
8 48
ĠN eg
/ ******/
ĠCH AR
Ġul tra
Gr ad
= t
Ġjud ges
ĠD ise
ann ers
98 5
89 1
86 1
Ġsc al
_c al
ĠCON NECTION
_ embed
(f n
ĠC raft
04 7
ĠP as
") ->
.con vert
.res ource
ĠST ATUS
Ã´ ng
ĠT it
Ġclass room
ĠArch itect
ĠK ings
Ġstead y
/* !Ċ
ĠG ene
) ";Ċ
ic ia
st an
ĠCon struction
um per
95 1
w c
ĠC BS
ing ing
-p arty
(d river
M ARK
08 2
Ġn ested
ew ard
Ġdepend ency
Ġm ales
9 28
ĠO NE
ĠProdu ction
][ $
ãĥ¼ ãĥ
_LO AD
ĠB ol
el ry
8 31
ł éĻ¤
ĠRe quire
Ġpl acing
xx x
CA LE
Ġth umb
8 24
Ch oose
Ġprot otype
VO ID
Ġles bian
7 41
Ġtra its
Sh arp
Ġconsum e
Tr uth
Ġaction Performed
ĠEnvironment al
ĠDe an
Ġest ado
s ame
Ġnumer ic
Ġtrans it
. Email
-s ide
_R UN
ĠVill age
_OP EN
è ¦
.re m
-w arning
any a
Property Changed
Ġ(! _
( check
il ia
ĠSo ft
st eps
ĠMad rid
Memory Warning
Ġhand lers
Ġexperi encing
Ġins pect
button s
Receive MemoryWarning
chem y
Link s
Ġur llib
.System Colors
ĠE igen
Ġpun ishment
:UI Control
bar a
- set
Ġ}čĊčĊ čĊ
Ġtoler ance
Ġinter faces
. redirect
ighb ors
cs rf
_back ground
. Utils
_H T
69 2
ĠInter est
im os
Ġgr ants
08 3
Ġexam ined
Ð Ķ
Ġc f
for ge
back s
ĠObject s
_s ent
. entry
ĠTH EN
ell ido
c ia
, res
65 9
68 1
/std c
. nd
( Int
ĠAuth ors
ĠApp CompatActivity
' {
Ġmed i
M usic
ig m
ce ipt
Ġa uss
Ġtarget ing
ĠKe ys
h n
: ]Ċ
Ġmin eral
Ã ®
.c a
76 1
om ed
Ġshe ets
Ġc amb
Ġdead ly
.in ject
( unit
ĠSe lection
.g ms
( connection
Ġ$ ("
Ã© mon
ĠCurrent ly
pt e
_path s
8 47
le af
Ġimp lications
pos al
ä½ į
[ /
anc ia
é Ľ
m ul
c ie
Ġge ile
67 9
im als
UI View
Ġs urre
serial ize
IS O
Ġarbit rary
Ġsock addr
.f n
ĠM erc
Ġcast ing
Key Down
Ġnew Value
op ens
7 17
T odo
Ġflex ibility
ĉĉĉĉ ĠĠ
V elocity
Ãº n
row ing
Ġcomput ed
` )Ċ
st atement
Ġr i
_c art
L ow
trans fer
.n av
Ġgr ave
ĠDo or
ĉ alert
69 1
69 8
.sub scribe
- profile
ĉb ase
ĠâĪ Ĵ
__ ĊĊ
Ġengine ers
Ġexplos ion
Ġd ari
68 2
ĉ Log
on al
Ġisol ated
{ i
ĠM sg
F uture
Ġrac ist
-w rap
ĠV ers
b org
IS ION
Ġ ÑĢÐ°Ð
ĠY an
8 36
init With
Ġn omin
( empty
ÃŃ n
ãĤ ¤
ĉ width
Ġch amber
/ ajax
EM P
09 3
Ġnec es
iv os
log ic
*) &
cript s
97 6
Row At
05 3
ib lings
Ġe ars
Ġcomput ing
Ġm aker
ĠNe ither
b readcrumb
Ġserial ize
ĠWith in
Ġd ell
_TR ACE
09 2
= a
Ġwish es
-in ch
ĠD or
Ġinnoc ent
ĠD ol
Ġint ens
for ced
05 4
ĠB IT
Ġphotograph s
Ġcas a
ĠL en
\F ramework
.S imple
Ġde ar
8 95
)/ (
ip pi
Ġown s
Pl ayers
Ġpropos als
.p i
us alem
D amage
Ġcal ories
ĠCreat ive
Ġ[ $
Ġ// čĊ
78 6
And View
Ã¨ me
.c ustom
_f actory
command s
_lo ok
Ġstr cmp
Y N
a ired
Ġaud it
Ð¾ ÑģÑĤ
ĠRe verse
ropri ate
et ics
< vector
.s elenium
. or
Ġpred icate
Ġfinish ing
Ġk le
ĠRep os
ĠK han
ĠM aking
ĠF S
Ġp ute
ĉ state
_S UPPORT
' -
orient ation
Ġexist ed
atur a
Ġexpect s
ĠSh adow
9 66
Ġorgan iz
å ŀĭ
Ġsusp ension
66 9
Ġu it
Ġsimult aneously
ĠAff ero
: ");Ċ
Ġro cket
c as
eter mine
ace ut
69 3
x l
ĠA MD
( graph
75 8
87 2
ass oci
_C R
.ar ange
04 9
(j Label
Ġbe ef
Qu ick
.c ard
] ):
- gr
7 97
.G ONE
_C LOSE
ĠNe v
ÃŃ as
Ġste pped
ĠFre edom
ĠW R
NS Array
_r x
_d ialog
Ġhot els
95 3
Ġ( \<
ĠD iamond
Ġassum ption
um i
( items
č ččĊ
æ³ ķ
Ġn el
Book s
åİ ¿
us b
ĠF IN
88 1
æ ¬
Ġcorpor ations
US A
ĠĠĠĠĠĠĠĠĠĠĠĠĠĠĠĠĠĠĠĠĠĠĠĠĠĠĠĠĠĠĠĠ ĠĠĠĠĠĠĠĠĠĠĠĠĠĠĠĠĠĠĠĠ
9 29
.p roperty
ew ise
_ plot
"> ';Ċ
Ġpe pper
98 9
Ġsh ed
ĠMed ium
ĠC ookie
88 9
Ġoverse as
ed or
asure ment
7 66
åŃ ĺ
Ġ' .'
Ġph p
ĠPRO C
Ġexception al
( th
ĠJ et
Ġoccup ied
.set Image
ĠRel ated
uck er
M embers
PR INT
ĠG lo
_V IEW
} ",Ċ
Ġad option
[] )Ċ
8 42
ĠMiss ouri
ĠLin coln
eral d
Pop up
Ġf ate
- bootstrap
fe ctions
ĠP oll
_ARG S
in ance
69 7
-h ome
. ),
_d one
69 4
: ĊĊĊ
Ġdiscuss ing
ĠSQL Exception
Ġelect ro
ĉ req
Ġz w
88 6
Ġl ui
9 32
Ġover night
$ user
ĠW AY
Ġall erg
Ġdisappoint ed
Ġradi ation
Ġimpress ed
ific ates
Ġto b
CL ASS
Ġc uda
_d et
- post
ul u
Trans lation
-h and
.y ear
ĠM ongo
Ġun clear
. engine
WEB PACK
r ices
_AC CESS
Ġh olidays
per cent
.Id entity
ĠG ov
Ġpassion ate
!! .
ĠGree ce
plus plus
')) ;
G P
Ġexc it
.tab Page
_ cond
Ġspons or
M ODULE
_pro c
Ġ$ Ċ
Ġr ational
.T ool
Ġi hr
cc a
åĵ ģ
ĠE state
IB UTE
Action Performed
ĠS olar
¦ Ĥ
Ġequ ity
t id
9 38
Ġrec ip
.s imple
m k
68 9
ĠL uke
ĠGuard ian
Ġenc rypted
Ġdomin ant
. place
ĠN V
8 39
Ġtong ue
( Get
Ġst ainless
.P lay
Ġe b
ac i
.b uffer
readcr umbs
Ġvacc ine
p rom
97 9
Ġuser Info
Ġsl ug
Serial izedName
-w ide
Ġre actions
ĠY ang
ĠAdd s
(user Id
Ġpl ates
ĠM EM
Ġb ail
In side
et ed
Ġels if
Ġs ake
Ġc ycles
Ġì Ĺ
ĉ I
-c ollapse
8 41
ĠG MT
8 14
De claration
Ġg ros
Ġreach es
Ġcust ody
Unt il
75 3
8 56
t u
ĠCh en
Ġn x
( addr
ĠO ffer
Ġcol leg
ass ador
67 4
Ġm apper
8 54
ĠS IGNAL
ĠB loom
ĠH oll
ĠIm per
-d es
_s ite
Pro c
E qu
Ġat omic
ĠW oman
s ent
7 38
8 17
sc ar
Ġint elligent
ĠGet ting
ĠReg istration
ĠPh ill
Ġkill er
unic ode
Ċ ĉĉĊ
ĠJac ob
ĠCon st
Ġloc ate
Ġca us
7 49
ĠSch olar
Ġconstitution al
Ġinfl ation
ĠG ot
= array
end um
Ġtransl ated
Ġdiv orce
En tries
Ġs or
ĠQu ote
irl ines
U K
Ġexc el
( opt
ĠAD V
,: ,
Ġcontact ed
7 42
ĠD A
Ġr ings
ĠIndust rial
.get Context
Ġforg otten
ĠT an
Ġp ants
Ġo v
Ġdec oder
ĠPart ial
Ġv c
Ġbatt les
A rial
FRING EMENT
ir ates
, w
aint enance
ĠO d
ĠTechn ologies
åī į
ĠCar ter
.find All
N ome
B en
ĠUs age
ĠP icture
Ġbad ly
_p anel
Ġpat ent
ĠProt ocol
lot te
ĉ player
je ctions
7 46
Ġd ou
_re lease
urn iture
_t ax
ĠF ields
.d ataset
_m aster
CLU DE
ĠPh arm
b st
Ġoper ational
.c ell
Ġident ifying
Ġj wt
t uple
ĠT C
ĠC ro
9 36
ix map
- components
gener al
Ġo z
_D e
_d ouble
ĠTo o
08 8
.View Group
87 9
g ate
d ings
ph otos
Ġgrand e
ol lect
_l in
Ġaw ful
f ilters
Ġaltern ate
es p
Ġcomp ress
e o
ĠS cale
Ġind irect
Ġinv oice
ĊĊĊĊĊĊĊĊ ĊĊĊĊĊĊĊĊ
Start ing
ĠPl ayers
ie le
. then
98 1
Or d
ĠT uple
Ġb out
ĠStat istics
Pre view
Ġp uzzle
ĠW idth
ST ATE
Ġover lay
ĉ on
Ġin fr
Ġsm allest
lock ed
ÑĤ Ð¾
ss l
77 9
Ġde emed
Ġs co
re ck
Ġj Button
Ġmiss ions
87 1
ç§ °
.Selected Index
T ABLE
Se pt
Ġacknow ledge
Ġstrt otime
ĠT ell
ĠD ak
Ġal uminum
Ġf ence
ĠSt ars
CON FIG
Ġretro fit
Ġemph asis
/ header
ĠS omething
in ished
=' ".$
ĠValid ators
Ġpol ar
section s
9 44
.as px
Ġas pir
.M ock
Code Gen
Ġpe ut
97 1
Ġaccept ing
Ġback ing
P icture
/ ap
ÐµÐ ³
_SE C
- use
annot ation
Ġcogn itive
Ġg rip
h our
ĠLeg al
Ġep ic
.t oolStrip
.not ify
.L ast
OR IZ
M iddleware
cri ptions
l ash
_F OUND
ĠLiver pool
Ġ{} ",
9 31
Inst all
Ġn it
Ġfig ured
[ len
.W in
.pl atform
8 53
Ġgam bling
(d t
av ery
ĉ include
Wh ether
R outing
Ġther ap
Rem ote
ĠL oss
y ll
Ġappro ached
ĠV ehicle
ĠAl pha
Ġvoc Ãª
ans wers
NS Dictionary
95 4
cons ider
un used
ĠF an
or able
f re
87 3
ĠDIS CLAIM
ĠAct or
. ]
to Have
.user Id
Ġspeed s
ew ay
Ġrec urs
ĠÐ ³
_pr iv
! âĢĿĊĊ
Ch oice
Ġsett le
Ġplan es
' },
T om
IT ER
! "Ċ
å »
achel or
Ġsepar ation
Ġd al
ad j
Ġreg isters
r iz
ĠNot ice
Ġl u
Ġcour age
Ġax es
cell ent
.as ync
07 3
Ġcompat ibility
ç «
Ġ! ĊĊ
ĉ title
Y LE
ĉ message
U UID
OLD ER
ĠH H
ĠStyle Sheet
Ġaccess ed
. validation
t asks
Ġpoll ution
.c anvas
Ġing redient
ĠC abin
A h
old own
ĠNO I
ĠÃ Ĺ
[ f
ed uc
y alty
(n ot
_ State
9 33
am en
7 95
7 39
Ġda o
ud ad
ell ers
} &
lic ity
_W INDOW
Ġt atto
val or
.R ange
Ġrefer enced
ĠRes erve
M oney
87 4
SCRI PT
/ product
cho ices
Ġt in
ãĤ ĵ
9 18
Ġsepar ator
Ġp kg
am med
ĠM AT
! !ĊĊ
Ġr aid
Ġmotiv ation
ĠX P
ĠBack ground
ĠQu aternion
.define Property
ik er
ĉp arent
ĠOrigin ally
ant age
ĠH ans
Ġtim eline
.c ur
op ic
ĠSe qu
m ust
ĠCo al
Ġform atter
_R GB
Ġ_ ("
'} ),Ċ
Ġ= ================
ĠF UNCTION
Ġl ng
ic ates
l ive
_ engine
Ġtown s
8 68
')) ĊĊ
ĠP K
( api
ĉs canf
08 9
pack et
.ph one
á Ģ
ĠAnd y
_N AMES
98 2
PL Y
9 55
Ġmin s
im i
Ġbr ick
Ġbl ade
.std out
}` ;Ċ
Sh ift
ĉs b
ĠCheck s
Ġphenomen on
Av atar
Ġmin istry
ro se
ĉ File
8 78
Ġtit led
( LOG
Ġg an
des ign
(), čĊ
Ġb ones
st m
ÅĽ Äĩ
ĠInput Stream
Ġvol unt
ĠSerial izable
Ġfight er
ĠDr ag
T witter
Ġsubs id
ç ¼
Ġfor ums
.load ing
log ged
_ this
Ġterr ain
Ġir re
ĠIn g
ĠC N
_object s
. uid
Ġconscious ness
T INGS
ĠG all
Ġport ray
05 6
ĠDevelop er
Ġparticip ant
Ġ" ;čĊ
/ model
79 4
ĠOper ations
^ \
ĠL ater
Ġrais es
-n one
.m eta
=' .$
Fin ished
Ġrepl acing
Ġsam pling
ĠJ en
" There
RE AL
A LE
ìĬ ¤
Or ders
_param eter
ĠOlymp ic
Ġtr Ã¨s
Ġare na
i ol
; ?>
Ġimpact s
ĠW S
: get
Ġfl ights
ĠRuss ell
c amera
F n
s igma
Ġfor cing
Ġloc als
Ġdepart ure
Ġcelebr ation
ĠS ay
88 4
ï¼ Ĵ
ĠH ills
.has OwnProperty
Ġtyp ings
.A PI
Ġdon ation
Operation Exception
.Act ivity
c plusplus
ĠChar lie
Ġimport ed
Ġd ann
Ġoccas ions
Ġimplement ing
Ġpur ple
.d ialog
SQL Exception
ern o
Ġw ars
Ġpast e
Ġdecre ased
Ġhar sh
Ġel abor
input s
ĠView s
Ġerror Message
_m ul
ĉ write
ĠC op
ĠAnn ual
(b utton
Ġv ida
b ars
ĠHar vard
ĉex pect
Ġindex es
Ġdocument ary
Ġf lesh
OR LD
ĠD elta
M AND
Br ush
-c olumn
Ġdevelop ments
97 4
78 3
method Visitor
s lice
ĠP DO
Ġinvest ing
8 67
ir able
Ġxml ns
ï¼ Ľ
art a
Ġthe ories
_c ity
Ġ$ __
Cre ating
( pr
D ropdown
ism atch
ĠN ET
9 26
'] )){Ċ
ĠVal ues
ĠSE O
ĠST AT
Ġe cosystem
Ġtem pt
Ġ\ \
Ġ// {Ċ
ĠChrist opher
ĠKent ucky
ĠHttp ServletResponse
Ġhy brid
y on
Ġfeed ing
ĠEx tra
N orm
IT CH
ĠSe an
ĠUp load
m un
p ur
Ġp ersistent
ĠID C
ĠPer form
86 3
.m erge
_ room
Mean while
! ='
ĠW el
Args Constructor
88 7
.D atabase
Ġcount ing
() *
Ķ åĽŀ
ĠT OP
m ill
ĠD T
IGN ED
95 6
ĠK B
Ġcomp ly
S outh
_c ollection
Ch apter
Ġexpl aining
_ AM
_t s
c ards
Ġqu el
Ġp ole
Ġtouch down
ĠO thers
Ġpe ers
ĠType Error
76 3
Ġsix th
Ġche er
Ġdis pute
96 3
89 3
us c
) ],
th umb
Ġh iding
ĠS IG
lik es
ĠP AGE
.Ref lection
Ġhead quarters
T ING
ĠG host
M LE
$ Ċ
Ġcontr ary
ext end
'] ).
FF ECT
ĠP interest
Ãºmer o
ric ane
ĉs ession
Ġcr ystal
- Control
overn ment
og raf
96 1
- action
v olume
ft en
Ġun con
Ġan imate
Ġle ase
sc r
Ġref use
ãĢ ĭ
ft p
in formation
Ġeval uated
Ġin jection
Ġj ack
Ġwork shop
æ³ ¨
PT H
ĠT s
off er
ĉ os
Ġking dom
M issing
Ġlaw makers
ext Field
Ġsing ing
ab i
/ client
.m edia
ATEG ORY
Sign ature
% ',Ċ
ĠF uck
][ :
Ġsens ors
/ com
ĠPr imary
.S QL
_pro gram
Ġp ills
Ġinteg ral
Ġfle et
Ġdro pping
.s l
Be en
Ġp ets
Ġadvis ed
Ġdr agon
_ EDIT
( im
9 39
F ER
ĠDr ug
(r andom
Ġcomp ression
ou st
[ %
Ġbuy er
h op
R oles
man age
Ġpain ful
ĠBr anch
-mod al
en ant
ĠM esh
/ font
ĠG raham
Ġâ ĺ
Ġn c
ĠFranc is
Ġspec ification
Ġdam ages
- config
Ġthe oret
sec ure
_m ulti
aceut ical
Ġdemand ing
en ne
IST S
09 4
() ));ĊĊ
Re ason
Re cent
ph ase
Ġps y
_M AN
Ġvolunte er
å ¿
istrib uted
li o
Ġproduct ivity
_com m
S pring
n is
. weight
ĠC ancer
Al loc
ĠT weet
Ġsepar ately
ĉ check
_p roperties
. Unit
8 29
_CL K
Ġg t
Ġ( );ĊĊ
Ġhand y
8 34
ĠThom pson
Ġunn ecessary
ĠRe ader
89 4
G N
= request
ĠU tility
.Re pository
ĠA x
hy dr
79 1
ie u
Ġth y
Ġl t
_m ail
ä¿® æĶ¹
ail and
ĠPhil ip
Ġbit ter
Ġbet ting
8 37
Ġtim ed
ock s
07 6
' a
Ġal gorithms
Ġre interpret
Ġto ss
ro gen
Ġhop ed
( selected
Ġvent ure
TE X
ĠLe ave
.Sub string
Ġgr ateful
7 43
uk a
ĠCon sumer
Ġag greg
C ircle
à¸ ģ
_block s
Ġleg ally
Ġ" |
ãĥ ĥ
. board
.A b
Function s
rec ipe
è ĩ
ĠO xford
Ġwho les
.B uild
_ch anged
h ai
Ġdepart ments
9 64
I mp
Ġcoal ition
IN FRINGEMENT
Ġemp ower
itch es
N orth
Ġinfl amm
ON SE
Ġmiss ile
ĠR aj
ĠIss ue
Ġat oi
ca led
.Cont rollers
ĠW olf
Ġcrush ers
á» ĩ
.A uth
.add Attribute
h is
Ġbo ots
.c lean
c amp
Ġten ant
Ġt une
Ġ{} '.
Ġwork out
Re po
Ġpartial ly
MI SSION
j amin
ĠS B
Ġdetermin ation
Ġ' ');Ċ
ĠB eng
Ġv os
Ġin hab
/ lang
s burgh
Exec utor
h one
ĠCh allenge
_link s
.Le vel
Ġunder ground
-c ode
95 9
Ġoptim ization
log ging
_de st
Ġsn ake
Ġchemical s
_IMPORT ED
ado op
ĠTH AT
man aged
Ġredu ces
ĠRE AL
ĠG uy
_GENER IC
/ ********************************
. amount
Ġd ere
get Time
Ġp ant
an onymous
Ġharmon y
ĠAl an
Ġscen arios
Ġd irt
ht ags
M c
Sh ell
r in
{ čĊčĊ
.p ow
ĉ client
Ġconspir acy
Ġad mission
ĠReg ional
ĠView Controller
ĠPhilipp ines
Ġde pos
Ġp ap
96 2
ĠP ad
P aul
.Com boBox
Ġt utor
ĠRec ipe
w riting
Ġcontrib utor
OT H
Sm all
V I
Ġh acer
e qu
ĠEx amples
h uman
.m essages
ĉt yp
Ġ( čĊ
ĠS SL
LE N
ĠRom ney
( grid
ĉ min
Ġ> ĊĊ
Ġfr uits
Ġvot er
In line
pan e
ĠC ollections
char set
Ġsp am
z b
item ap
Ġsucceed ed
_C OL
Ġel apsed
im eter
Ġrecover ed
T ensor
hatt an
.set up
ist o
( head
9 77
ĠS IZE
Ġtact ics
Ġdist ur
Ġpre val
ici os
( Value
_c ols
ĠF at
Ġse al
Ġs ons
Ġens ures
09 5
Ġpress ing
= &
igen ous
Ġharass ment
_ JSON
Ġign or
yn omial
om er
_st atic
Ġsignific ance
Ġcirc les
_S ystem
Ġdiscipl ine
Ġdress ed
Ġs phere
9 27
Ġclim b
75 9
_ actions
ĠB ab
Ġ' =',
_s chema
" use
Ġund ers
Ġc ups
.s creen
/ new
Ġappe aring
T OP
vis ed
cl ang
Ġinvestig ators
Ġmyster ious
Ġprom ising
Ġqual ify
Ġc ave
Ġequ ip
= x
G T
( link
. velocity
. erase
ot er
++++ ++++
pro fit
Ġz ones
_ uid
- ser
Ġobject ives
Ġmil f
web kit
(m atch
ne h
ĠAssoci ated
ĠT odo
= d
0 65
C am
Ġv ocal
Ġs udo
( EX
Ġtr ou
AB C
.b ean
ĠG round
ĠRE ST
we ets
In g
im on
9 46
_b us
ĠC OLOR
un to
Ġf oss
ĠLink s
8 69
Ã¤ ng
/ forms
pr ises
Ġachie vement
C ALL
ÐµÐ» ÑĮ
ĠVer ify
_S OURCE
apt cha
ID D
_re ference
G old
ĠĠĠĠĠĠĠĠĠĠĠĠĠĠĠĠ ĠĠĠĠĠĠĠĠĠĠĠĠĊ
9 47
Re ceiver
0 99
Ġa j
_d irection
} ]
ĠCom pet
Ġb ang
7 98
ĠC ass
- url
te chn
ĠJer usalem
long itude
' );čĊčĊ
Ġwin ners
T asks
ĠD MA
Ġtool tip
İ ·
ĠB ra
_d uration
cur y
parent s
---- </
Ġpass port
8 49
W C
ĠÐ »
cess ion
ĠY ellow
Ġenc ryption
' ĊĊĊ
Ġlist ings
ĠCommunic ations
._ Ċ
Ġ""" čĊ
Ġf b
Ġstrict ly
ĠL iter
ĠEnter prise
_b ottom
A KE
k et
Ġt am
B etween
_T OP
Dis able
Ġfil ing
ĠCh ron
SE QU
Ġ& ___
8 46
Ġf al
ĠS LOT
Em bed
uth er
ĠRest aurant
Ġreal istic
! ');Ċ
ĠDE AL
ĠPer iod
.get X
Ġse hr
"] ').
9 43
ess a
ĉmem cpy
Ġacknowled ged
sen al
ĠUnivers al
Ġ' ';ĊĊ
/w iki
ien ne
ĠNS Array
Ġaccept ance
Ġl iver
Ġtoo th
Ġacc us
ĉ LOG
val u
åĢ ¼
Ġs ectors
periment al
/ class
_g o
Mich ael
ol atile
ĠPRO F
Ġcomp rom
special chars
Ġâ ľ
ĠisEqual ToString
ĠH ung
.as List
/ go
> >(
ĠK ir
Ġint ros
Ġsk etch
Ġsk illed
Ġim mer
Ġade quate
_re p
( header
_ like
Ġper ceived
ss h
Ġassum ing
Ġf f
_u uid
ul as
Ġdemocr atic
. entities
S eries
aph ore
Ġnew er
} (
SE C
ai ro
Ġcomm od
Ġprivile ge
Ġde ux
ĠH op
.' /
ct ic
. ';Ċ
<? =
ĠU T
et ies
_CONT ENT
.re lease
.dis miss
Ġf c
oun ge
p wd
_p rev
M gr
ĠBuffer edReader
w ritten
ĠE b
Ġ )ĊĊĊ
uit o
Ġcontrovers y
Ġdis posed
Ġf oto
List View
/ create
ĠC OL
comm unic
0 68
Ġfre ely
un al
ov id
ĉ tr
p agination
ĠCommon s
E lem
ĠR EM
Ġcorre lation
() +"
ĠH ide
and ing
( vec
it os
ĠC ult
Ġnut rition
val s
Ġdetermin ing
l ord
Ġsc andal
Ġshall ow
od ash
_s erial
ĠS lo
Ġdis pon
Pl ot
ick le
Ġ ell
Ġun employment
F M
ron s
l Ä±
M o
Ex ist
ID S
Ch o
ĠKey board
.p arser
.Get Object
Ġsp ells
Ġges ch
Ġmagn itude
_S L
isd iction
Ġ' );Ċ
ili ans
Ġsh ar
ĠPro b
uilt in
Ġtun nel
> C
ĠWar ren
Ġoptim izer
ĠSER VICES
_ oper
get Attribute
ĠMc K
_s elf
08 4
.r s
" )ĊĊĊ
Get Component
er ce
Ġt ous
un its
'] );čĊ
Z oom
/ E
Ġobs c
Ġfast est
on line
Ġpeace ful
ff en
Ġc argo
ĉ pr
Ġseek s
z u
07 4
Tr im
Ġw ard
Ġver d
Ġblog s
.exception s
ĠPrem ium
ĠN etherlands
S afe
Fin ish
ĠAl bum
_A CC
= this
v irtual
] >
_L ABEL
ĠN ich
_w in
ĠA aron
W P
; $
aim s
ĠImage View
Ġend less
ER A
_DIS ABLE
Ġcancel led
- us
Ġins pection
em in
ĠG rey
- open
Ġiter ations
. owner
Ġk eras
.P assword
ĠR y
ĠIN S
A ir
ĠSe veral
.Tab Stop
ING LE
ĠH air
ĠCan vas
AA AA
Ġfl aw
ced es
.Re port
í Ĭ
ĠT ips
cript ors
.trans action
.S pring
Ġview er
Ġins ights
è¾ ĵ
ord ion
U INT
se ek
ĠA uf
ìŀ Ĳ
Ġstr ain
To oltip
Ġd z
ign al
ad t
Ġu c
fin ite
Ġn m
.c md
ĠMy Sql
[ data
.j ackson
.t ree
Request Param
_ agent
") ]čĊ
Ġass ass
( Constants
: ss
ĠM AN
+- +-
ĠB ottom
print s
ĠS ame
@ Autowired
sw ap
ici Ã³n
Ġprotest ers
Ġh oney
ĠV eter
(C alendar
- ad
ĠBrook lyn
L ife
_V AR
ze ch
ĠC ALL
_C AST
ĠE lection
[...]
